  t
  a
h e
i n
r e
 t he
o n
e r
  s
  w
a t
  o
e n
  c
i t
i s
a n
o r
  b
e s
e d
  f
in g
  p
o u
 a n
a l
 t o
a r
  m
  in
 o f
  h
  d
� �
a s
i c
 an d
 t h
l e
o m
i on
l l
en t
  n
  l
  re
s t
v e
  e
l y
r o
 b e
  g
i d
u t
a c
o t
  T
  I
 th at
  on
a y
  S
  is
e t
i m
a m
a d
o w
s e
i g
 f or
� �
  A
v er
u r
c t
l d
  C
  u
 s t
  y
  it
  he
i r
at ion
it h
 w h
  M
c e
t er
o l
 w e
i l
 w ith
 a s
  B
c h
i ll
n d
  P
 w as
er s
 y ou
k e
  �
 c on
 d e
  r
he r
i f
at e
a g
 a t
 h a
  W
 s e
  H
o re
 p ro
u l
p p
m ent
r i
 a re
  D
  1
u s
es t
is t
 c om
an d
  R
o p
a in
 T he
  2
ig h
r om
  (
or t
o d
 n e
  F
u m
u n
 e x
re s
a b
� �
 n ot
  N
  v
es s
 ha ve
it y
e m
ou ld
 o r
t h
 b y
o s
an t
  G
i ve
 f rom
 a l
e l
' s
o c
ar t
 s u
  L
 s h
 th is
n t
q u
igh t
p e
u st
  le
i es
  E
en d
 c h
 s a
ou t
 a b
T he
al l
i e
ac k
re d
0 0
 � �
 h as
al ly
  J
 p l
 g o
ar d
i v
 h is
om e
a p
o st
g h
e ar
  O
 t r
ou r
as t
  j
a k
u d
 d o
 the y
 b ut
 w or
r ou
 c an
g e
 w ill
 sa id
 w he
  U
  k
ic h
 a ll
o k
  "
id e
 wh o
 in t
am e
an s
t her
i al
 o ut
f f
 the ir
on g
e ct
p l
ic e
u re
p t
on e
 m ore
ag e
ion s
ac t
i ke
 m e
 u p
ou s
in e
 a d
 ab out
at ed
r a
b er
 on e
 we re
 s o
 u s
im e
o g
  K
e p
i a
 h ad
a re
u b
c c
 w ould
 c l
 2 0
  im
 wh ich
in d
u e
a ke
 con t
i z
ver y
 a g
 t e
 of f
 com p
 u n
 be en
 S t
s o
  en
p er
ig n
a u
 T h
ar y
ac e
 y ear
i p
e w
 l ike
e re
v en
o ok
 in c
ay s
 m an
 p e
r y
o se
 re s
ab le
it e
 p er
as s
or d
 s p
i re
 I n
 o ther
m er
 s ome
i le
i b
en ce
op le
 20 1
k s
ation s
 o ver
ic al
 the re
res s
 d is
ul t
in t
 ne w
ow n
 al so
 th an
 a r
 be c
r u
 the m
an ce
ou nt
ou gh
 a pp
p ort
a il
 p art
 you r
 whe n
re e
 wh at
or m
on d
 pe ople
f ter
 s c
 C h
a v
as e
  qu
 an y
 j ust
 it s
  Y
ac h
 t ime
 I t
 k n
 he r
  3
en s
l ic
 re c
re at
 m y
 g et
  if
  V
i an
. ”
 int o
ou nd
 wor k
 t w
ir st
ve l
ct ion
 n o
d u
ing s
or y
ic k
or s
 o ur
it ion
id ent
o b
  -
 p re
o ve
 pl ay
an g
in k
au se
w n
t e
am p
ad e
h ing
at es
ar k
  ro
 p ol
 s he
ver s
 c o
, ”
 a fter
n e
 f irst
 c ould
 h ow
 H e
 1 9
i ous
nd er
i ld
 a cc
 h im
a w
' t
on s
 p o
 on ly
 f e
 at t
ic t
he d
 p r
 tw o
r it
o v
is h
 com m
� �
f orm
 s pe
 a ct
w e
er v
 b l
f t
 be t
 de c
. "
n ing
 b ack
 m ost
c es
o od
c k
 � �
 a m
o y
 d id
rou gh
if f
at er
rou nd
 ag ain
  4
u al
d ay
is e
 u nder
 d es
 w ant
u ll
se l
 con s
 � �
. .
 bec ause
 n ow
l ud
ent s
 year s
m an
ter n
ub lic
e c
 ne ed
 e ven
  $
is s
 in v
 kn ow
 W e
 se e
ment s
c ed
 ad d
, "
t ing
o ld
 in d
 se c
f ore
u ch
 e very
ur n
  5
 su pp
 m ake
pe ct
 U n
 e m
 the se
oc k
o ll
 whe re
j ect
I n
ation al
ver n
x t
 b u
 l ook
T h
 A nd
os s
 d on
 e v
um p
at ing
 w ay
 be ing
 re m
 r ight
i ly
 m ay
n g
ro w
le ct
ie w
 the n
 man y
  [
 d iff
 de f
as on
 re l
 c all
 B ut
 T r
on t
i ed
l es
as ed
 inc lud
 th ink
ak ing
 re g
) .
mer ic
 im p
 th rough
at h
it ed
ri b
 s y
 sh ould
 p res
 s ay
e ll
 f l
ur ing
 l ast
 th ose
ow er
  very
t y
ot her
 m uch
it ies
if ic
 st ate
 Th is
at ive
 sh ow
t le
he n
 b r
s s
ar g
 we ll
ot h
 p h
 W h
 c ount
al s
u nd
 2 00
 do es
 d own
 o wn
ar ly
  end
 as s
 be l
 u se
ic s
an ge
- -
t s
 l ong
 A meric
ter s
in ce
 be fore
om et
g r
 m on
w ard
 go vern
 st art
 re port
ib le
  ke
u p
u es
 N ew
 f in
 te am
b le
 m ade
if e
ol og
en er
) ,
 su ch
re n
c om
ou n
ers on
e k
i x
 s m
� �
l p
il ity
 go ing
is m
f ul
 wor ld
u ally
 st ud
ist s
 go od
 a c
t ain
I t
 su b
 e ff
 s ur
 again st
it s
 g ame
 s et
or k
  6
 g u
 po int
  ent
y s
00 0
g an
ar s
l i
st em
 pro v
 st ill
rou p
 wh ile
ill ion
 he lp
 le ad
 m in
we en
e f
a x
an k
al k
im es
 s ays
 o b
m s
c y
 pro du
 g r
 in ter
 in st
 st r
c ess
 s im
i o
sel f
 con f
 c ol
 t ake
u res
ar ch
 s ame
 th ough
 bet ween
oll ow
 off ic
e ver
 c r
 diff ere
o ol
us s
ut ion
l and
 dis c
a ir
 o p
a h
  ed
 h igh
re ad
 n um
 l aw
 s ign
w ay
 govern ment
g g
 R e
l ed
n er
h ip
at ch
he s
am es
an y
 t er
 s omet
c ent
vel op
t ed
W e
 re f
 tr ans
t en
 in s
 r un
 s er
 f ound
 th ree
iv es
a ve
 m em
 a round
 he re
at her
 m ed
 re al
 us ed
ou se
 1 0
v ed
 ex p
a z
 A r
ce pt
o ot
 sy stem
 Y ou
c i
 re ally
 m od
v ing
c on
c er
 g roup
 supp ort
  7
 c our
et s
al e
in s
 re t
 h and
 p ublic
 spe c
p r
 L e
y ing
 g reat
 c ar
en se
 ex t
. [
t on
ire ct
 c ur
 f am
 C om
al th
 ha pp
 f act
p h
 ex per
 The y
 Tr ump
 f r
 w om
 I s
 c ap
 b oth
 d ay
 f ind
 A l
ul ar
 re ad
in es
o h
ic es
 d et
 l it
 s l
 re p
ut h
e red
 d uring
 S h
 A s
  0
 s erv
 mon th
m in
t he
is ion
 c re
 de velop
 b ig
  8
 p erson
ak es
 f ollow
 C l
 is s
e x
 to ld
 s ince
a red
m ed
ic ally
 we ek
ag es
i vers
 w ar
 f ew
ort h
ord ing
 c ent
 le g
a j
g et
 pol it
v es
as h
 ex pl
 l ot
r ic
 S e
 bel ie
 g ener
 to o
  9
d er
at a
re nt
 o pp
W h
 re qu
 cont in
 pro t
i et
b ers
an c
 f il
ent ion
n ess
 c le
 res p
 p ut
iz ed
 I f
 an other
2 0
ch ool
 in f
 somet hing
 D e
 differe nt
 c or
 l oc
ut e
 inv est
 s oc
 p ower
 c he
u c
  '
 p ass
 comm un
 l ife
 F r
 pl an
od y
 re le
i ence
 he ad
 th ings
n ed
 f ar
 ar t
 p oss
 m et
th ing
o x
ere st
 c amp
ro ss
ar ge
 v ot
i er
Th is
v iew
 ch ild
ant s
 as k
  .
 m ight
 e ach
iz e
in ess
 de p
 ne ver
 ne xt
i k
ie ld
 sec ond
 m ark
t t
 qu est
 b us
 ad v
 A n
 de m
 F or
 com e
 g ot
 � �
 op en
 b est
i ent
it al
 all ow
 Th at
r at
 se em
 p ost
p le
n ce
 fe el
 P ro
 U S
u g
 p ri
gr am
 per cent
c l
 h ome
 d ist
 d irect
i red
 inc re
 cont ro
 R ep
s on
or n
l ess
os ed
 res ult
 h ard
 c are
ate ly
 m illion
ch n
 comp le
 pl ace
 with out
 in form
 includ ing
 im port
 a v
con om
 h um
  ide
 pro ble
 bu ild
 to p
am a
 num ber
 count ry
g y
one y
a im
 B l
re t
r al
ab ly
u ro
 st and
 g l
 e l
ri end
 f our
is hed
w ays
 part ic
 bet ter
c o
 t ri
B ut
 rec ent
 int erest
 m ov
 le t
r ation
 se ason
 l ess
e ad
 t urn
 lit tle
 be h
 m il
 app ro
r act
l ine
 b ro
l ing
is ed
 call ed
a pp
1 0
 c ase
 d r
 I nd
 re st
 le ft
 p op
 an n
  Z
en cy
od e
 m ove
in a
 att ack
 The re
 ke ep
 f ull
er ing
 did n
b e
 f un
 m ain
aj or
_ _
 eff ect
in al
m e
le g
 pre v
 pro gram
 us ing
 t est
 p ay
t o
at ure
 e ar
 v al
 pol ice
 w rit
 for m
 e conom
 d ata
 new s
 p os
 w in
 Americ an
 le vel
 s it
 ch ar
ain s
iv ing
u ck
 sm all
in ed
read y
H e
 s chool
 l ist
olog y
r ap
m it
id ed
pl oy
' re
g er
 e as
 pro cess
ir d
 ch ange
 wom en
 cur rent
 re ce
 p rom
 h ist
 d ri
  =
i ans
re en
 pres ident
 comp any
 S o
us ed
 m at
ru ct
 al ready
oh n
 Un ited
w it
 t y
 wh y
 b re
 u nt
 m oney
 s ol
 al ways
 l ater
 ex pect
 te chn
 bus iness
 H ow
 offic ial
r on
  Q
 O b
st and
ivers ity
 b o
 b ook
 P h
a ign
 th ing
 cl ass
 pro ject
as es
 cl aim
 j ob
 inform ation
 or gan
a ff
 S he
ard s
 t alk
 B e
 des ign
 st ory
 ch ang
 m ajor
 ab le
 pro f
 - -
.. .
le ction
iv en
er tain
 re se
 he alth
 v is
 p ast
ur s
 f ree
he re
ou th
 A d
 o per
pt ion
 a way
i or
 C an
 m ust
 c ity
amp le
r ist
s c
ur al
 happ en
uth or
 1 8
 import ant
ac y
ur ity
 k ill
 s k
  est
u red
 o ld
 p at
ur y
end ing
 does n
iss ion
 le ast
 g row
 ed it
 v ar
ain ed
S t
 c ost
 G o
ne y
id er
id es
el s
 d ays
 te ll
 h op
 st re
 camp aign
s ide
 1 2
 m en
 c ame
 a ff
 con st
res ident
 en ough
 v iew
cc ess
 k ind
 M ar
o ad
 S p
er n
 m aking
 l arge
 rec ord
5 0
us h
 f riend
 m ar
 fam ily
� �
le y
 e lect
er al
 pol ic
 t ax
is ing
b y
pp ed
al ity
at or
if ied
A s
iv ed
are nt
r or
 unt il
ion al
 polit ical
 v ide
 de al
e e
ri es
al f
au gh
  ve
 work ing
u ed
 Rep ublic
 to ok
 de b
b s
I f
is ter
 l ine
 J ohn
ain ing
 a ir
-- --
  es
 in tern
 f ore
i ol
an e
oc rat
 bec ome
 act ually
ap s
on y
 me an
w ork
 f und
 S c
w are
1 9
em ber
 P l
 for mer
 of ten
 E uro
ot t
an n
 w on
 g ive
o int
 acc ording
 e ver
m ost
en g
y ear
w h
ar ing
 g ames
is on
 hum an
 b as
 wor d
iz ation
 ret urn
 t imes
 or der
 R uss
 b it
 D em
 n ame
1 1
g in
 se ver
 A ll
 de v
ic le
ut ure
f or
it her
i qu
 p ar
 19 9
 M c
 w r
 C on
ra ft
 s ing
 per form
 S y
id d
 mark et
 f ac
 char ac
The re
 O r
 A t
 M ay
 r a
 do ing
 app ear
E R
c hed
 play ers
 l a
 n ight
 le ar
ak en
ro p
at s
m ber
 to day
 e arly
 1 5
 se en
/ /
 ha ving
  ,
 p ot
 child ren
 ev ent
 med ia
 soc ial
 c rit
 P resident
 whe ther
 sever al
 contro l
id ence
 me et
s h
 mil it
 p ress
 w ent
art ment
en e
 f ive
 you ng
or ies
 su re
 pro p
ious ly
 e qu
 quest ion
 o cc
 like ly
ver t
un e
 mem bers
b r
and s
 c ertain
i um
 en g
 w ater
 Y ork
 ex ample
ot s
 C ol
 s ide
 an t
 ar g
 d one
en n
  vers
 inv ol
 M r
 St ates
 Euro pe
end ed
le t
 al ong
 sh ort
 su ccess
ent ial
 month s
b all
 h our
 1 1
 se x
i ver
i ally
A nd
l f
em pt
 with in
 des c
im ate
 cour se
 f ight
st er
ur ch
ub l
 am ong
 act iv
u ff
� �
ag ue
 on ce
 f uture
 invest ig
ul ation
re w
 poss ible
 Ob ama
 ch o
n ect
 under stand
it ing
 con cer
 O n
  ]
on es
ort un
 proble m
 B r
 pri v
 me ans
 v iol
 C ar
 a uthor
it ive
 N o
gg est
 av ail
oc i
our n
m y
 kn own
 produ ct
 n on
iv id
 though t
 y et
g ress
 ac ross
 prot ect
 loc al
al d
l er
 h old
 T e
 f ail
 W hen
 St ate
in c
 commun ity
 re ason
 or ig
 su ggest
  &
1 2
 m akes
ver age
n ot
p or
b ack
 201 6
  i
b ook
 ask ed
ed eral
or ld
 report ed
Y ou
ag ed
ens ive
 g iven
 str ong
 pro b
 m us
 other s
 belie ve
 vide o
i ber
 b en
 get ting
 H ouse
an ces
 ann oun
 l ight
ore d
o ber
 Un iversity
 3 0
 C o
it ions
  ident
ir on
 s ent
 c ut
 l im
 c a
 Ch rist
iet y
3 0
ur ther
 s our
 c reat
 con d
  X
re st
am s
' ve
 n et
as hing
 b at
am ent
 n ational
. ,
 cl ose
 start ed
 sa f
 de ath
as ter
 avail able
ar m
 h ig
F or
 b ased
 iss ue
o f
 ind ust
 Dem ocrat
 M in
 l ow
 follow ing
res ent
 acc ount
 l and
u se
 C ent
 em ploy
 l ove
 201 5
  #
 hist ory
 ag o
ort s
sel ves
 m om
 part y
ab ility
 ser ies
e b
 com es
 tr ying
u ly
ut es
 A m
 al most
get her
u ment
 to gether
in ation
A T
 Americ a
p ro
 ide a
ie f
 acc ess
 f oc
her s
il ar
 F l
re ed
ail s
 comm it
ition al
 is n
 S en
 cle ar
 1 6
 O ne
 tr ad
th ough
r ing
 Wh at
 pr act
 add ed
 imp ro
 exper ience
ere nce
 fil m
1 5
 h alf
ust om
g ed
 h it
a f
 B ro
wit ter
r ict
 an al
int on
og rap
un ch
 201 4
 r ul
ivid ual
 look ing
 s ix
 l ive
 any thing
 are a
 comple te
er man
min ist
 m iss
ra el
 E x
 Com m
 f av
 r is
a i
n es
 pres ent
ot e
ru g
 say ing
ra w
a id
 Can ad
 v ict
I N
ci ally
 b ad
ow s
u ge
 t aken
er t
 ent ire
ot o
 P r
at ors
e v
 b ill
 comp et
 E ng
 m or
 beh ind
i en
 a ut
 T o
' m
 cour t
pl ay
 tr y
 t re
 milit ary
  z
 ne ar
os p
 m ult
Wh at
 f ace
ward s
 1 4
 sec urity
  er
 P ol
s y
 pro per
 disc uss
 th reat
 to t
 stud y
 sing le
 r ather
 ind ividual
 A f
 B rit
 W ar
  �
tt p
 qu ick
 D on
 m ind
 S ec
le ment
al es
am ed
at ic
A n
 N orth
ap er
 p ubl
 polic y
 m ess
r is
p ar
 bl ack
 want ed
 f all
ir c
* *
o ff
 f ood
 s um
 some one
ll ing
id s
O n
  |
  /
 c ult
 spec ial
 com b
 ke y
 M an
 play er
 re du
 G r
 br ing
 1 3
 comp an
 1 7
p ly
 D ep
 att empt
 N ational
 t aking
 B ar
W hen
O N
if y
ol ution
  :
v iron
 f oot
 C al
: //
 el se
 pre t
 b ody
 sp ace
el t
ro te
o ver
d d
 prob ably
1 6
ic ult
. )
 fr ont
 c ou
 not hing
 s w
ashing ton
 I m
 con nect
c hes
 W orld
 rese arch
1 4
m ing
 Cl inton
 C ity
 com ing
 point s
 Is rael
R E
 how ever
 desc rib
g o
 j o
 sign ific
 sim ilar
y n
re me
c ing
 ben ef
li er
 A ust
 dec ision
 e ither
ac es
 c oun
a ult
S o
 m ass
m b
 H ar
 s us
 t arg
ull y
an a
 fe at
Th at
 im m
 con v
 ex ist
ir l
 en c
 201 3
 right s
 serv ice
 S u
as ing
un g
s w
I S
 f ire
 d oc
 w rote
 f urther
 h ouse
ro du
 f ig
 ch all
w w
 b an
 th ird
 w a
 cre ate
 st op
 f ield
n ow
 p ick
A N
a pe
ive ly
 me as
 re pl
 com pl
 W ith
 iss ues
pp ing
 be gin
 su per
am er
 st ep
ri ed
ent ly
 who le
 rel ations
 seem s
  )
 compan ies
pe cially
 d ue
 ex ec
 c and
 every thing
 f ederal
 G u
 st ates
 e y
 ro om
a ul
 tr a
 w atch
o on
 G e
 c ustom
 lead ers
1 3
u ation
 How ever
p ite
 J an
 W ashington
C h
l am
 se lf
 ro le
r an
il t
 s ound
 l ab
at t
he ad
 d am
iv il
 official s
 st ri
 201 2
l u
id ay
ib ility
 rele ased
 In st
e al
 be gan
 D av
 A pp
 S outh
 o pt
ob al
 stud ents
 t reat
 fin al
 charac ter
 pos ition
 mat ter
� �
end er
 en er
l im
 out side
er y
se c
ad es
 d ou
viron ment
 develop ment
 state ment
 him self
 201 7
 ab ove
l ike
 st at
 in it
 bre ak
 1 00
 am ount
 prov ide
 hour s
 it self
 them selves
 off ice
 rep resent
 a ction
 P art
 d i
 bec ame
 19 8
 gener al
 contin ue
 count ries
 In tern
 ne g
i od
 add ress
 2 5
 g un
ac ed
as k
 tr ue
 spec ific
ograp h
um b
ar ter
re g
 l arg
 signific ant
l ish
 sim ply
 A ss
 R es
 was n
' ll
 inter view
ace book
il i
 g round
 r ad
o id
og n
 diff icult
 run ning
 J ust
 ev idence
 ad minist
B C
 c op
1 7
re am
 d rug
 vers ion
og le
 b ar
 E d
 ag ree
e ks
idd le
 build ing
 Ch ina
 need s
 prof ess
ang u
 group s
r ight
 ty p
 resp ons
 comm on
 show s
 every one
 d om
 d est
 need ed
 b all
 wom an
 G erman
 l at
 bel ow
 t em
l ight
ourn al
 mus ic
 ex c
 rele ase
if t
 in j
 pret ty
 M ed
 A b
A R
rib ut
 includ e
 sa w
 de ep
 a p
b ody
1 8
 play ed
 qu ite
 indust ry
 ch arg
 m ag
 ener gy
 play ing
 m ot
 5 0
 cand id
 s ense
 ph ys
 l ate
 al leg
 wh ite
 H is
iv al
 friend s
 g en
 leg al
at ur
 an im
is c
b o
y le
 A fter
H ow
A S
w here
 ab s
le v
 inst ead
 re d
 b illion
 l ost
 es pecially
 val ue
 M us
 W est
 h ost
 h om
os ing
or ing
 New s
t ime
ag er
 p le
ist ic
 we eks
ep end
 N ot
cc ording
om m
 for ward
iqu e
 det er
 e lection
 recent ly
 j ud
 tr ack
 su ff
 vot e
 T witter
 ob ject
ir t
l t
med i
 per iod
 chang es
 opp ortun
 Wh ite
 O ct
 l o
 long er
ar c
o ke
e ed
 e p
 p ain
 so on
 s ite
  {
h od
ri pt
ac hed
 ac cept
 C ong
__ __
 sh oot
 econom ic
 hop e
ir m
o e
 mom ent
 dec l
le ge
 cons um
 W ill
 p ie
 t it
 che ck
op h
 pot ential
i j
 bl ock
 M arch
o le
 wr ong
du ct
n ers
 Se pt
 Dep artment
 hig her
on se
 c red
 on line
 foc us
 2 4
 cons ider
ke y
 ed uc
anc ial
 M y
n s
id ing
 c irc
 wor ks
 rel ig
 sh are
 p arent
c ial
 he ld
2 5
 p red
 D r
 w alk
 we bs
 l ed
ul arly
= =
 re ve
le ar
 st ay
 The se
ove red
al t
 st ru
 Republic an
 ris k
 word s
 A ug
 re v
 so ld
 re view
ic ro
 cont ract
 result s
 serv ices
 law s
The y
 c ode
c il
 M ich
 w ind
 fun ction
 a ud
 c e
 Sy ri
p ut
a ut
 tot al
f ect
 art icle
 a ge
 app lic
 min utes
ur d
 M e
 person al
il ities
 any one
u ary
i ents
it ution
as ons
 J une
A d
ate g
 pr im
ang er
 targ et
 St e
f er
 d en
 ear lier
u le
 fav or
 exp ress
h aps
 de ad
 an sw
 up d
 pop ular
c he
 comp ut
 v ol
pr il
 ne cess
h am
 h y
 r ate
E S
ag ing
 techn ology
ap an
 res pect
 P e
v al
 en vironment
 201 1
P h
 rece ived
 expect ed
ud e
end s
 go al
 P ar
 cre ated
 b ase
 sur pr
 ant i
 S m
 J uly
et er
te e
 proble ms
u el
 w ays
 p ort
ip le
act ion
 priv ate
 D o
 sc ient
 incre ase
r ay
re et
 announ ced
 com ment
is l
 can not
 eas y
A l
 sh ot
 Cong ress
 quest ions
b it
 for ce
ater ial
her n
 imp act
n a
 e t
 M ond
pl es
 p ack
  +
 F acebook
 p ur
 l angu
at ives
 G od
 E n
 invol ved
om b
av ing
ill s
6 0
le x
h ood
on st
 Aust ral
 d iv
ues day
 exec ut
ct or
 mod el
it iz
 s en
 spe ak
 st aff
 ex act
 c ivil
i res
 ne arly
 ty pe
our t
ok es
e es
 orig inal
 c ases
 cont ent
 19 7
 relations hip
 ter ror
 Go ogle
T o
 le ave
 Fr iday
 resp onse
 cap t
 ins ide
  <
 ph ot
ll ed
e ch
 f ans
 A pril
re m
 R ed
 intern ational
 co ll
c ast
 he art
 a verage
 bro ad
 ar rest
 us ers
 C ount
 c al
A t
re l
 c ell
 w orth
 so ft
  ur
 l iving
 E m
b or
 n ation
ip s
k y
 kill ed
 report s
 201 0
� �
g ing
 bec om
 sour ce
 Mond ay
 T uesday
 sub ject
 work ed
at ural
est s
 est ab
 im medi
E N
 resp ond
 gl obal
 ass oci
j oy
ell ig
 cl ub
op s
 Americ ans
a el
 ob s
it es
 P er
 P al
 ch ance
 o il
 A ct
 ab ility
 N e
 t akes
rough t
 we ap
he l
 pr ice
 J apan
olog ical
 direct or
iz ing
 work ers
 ter ms
 ro ad
m on
 publ ished
 de l
 Wh ile
 t ou
 ph one
r ain
 col lect
 fin ancial
 m id
os ition
 dec ided
is es
O R
 Russ ia
 S ome
 W ed
 m other
 s qu
 l ack
 def in
ove mber
 4 0
 g irl
 st ore
 g ave
 bu y
 inf lu
 Cal if
 l og
 happen ed
in o
 requ ire
 N ow
 e mer
 f em
" .
 cap ital
cl us
 fore ign
 current ly
 O ff
b ased
 S an
 go es
 B y
ov ed
 Ge or
vert ise
 sit uation
 ind ic
 off er
 who se
  @
 t al
 m aterial
 l ives
un t
 aff ect
ro wn
ough t
 pl ans
nes day
 ar ri
 mem ber
 p ict
urs day
 F eb
 partic ip
ru ction
 rec ogn
 turn ed
 met hod
 ev ents
 Jan uary
 H ill
 net work
O ne
 team s
 S und
 b ank
 meet ing
4 0
re ct
 n orm
 int rodu
 sim ple
f ully
 Is lam
  ill
 A g
 h uge
 Sept ember
ou d
 reg ard
 are as
 c y
ord er
 C or
es e
 T V
 cou ple
 appro ach
 care er
a ur
 Af ric
 G l
l oad
" ,
 de li
 r ace
l in
 perform ance
 p age
et y
ap t
 N ovember
 to ol
 Dav id
 f elt
 quick ly
 m is
 num bers
o or
 em ail
 2 1
a ily
 or d
 E l
ist an
 administ ration
 h on
 Wed nesday
 vict im
 P aul
 v ia
 impro ve
 eng ine
ch ie
---- ----
 f re
 p ull
 A ng
 r ound
b l
 bu ilt
 2 2
 p ers
 Europe an
 d ig
en ed
 Th ursday
 f ather
orn ia
 l oss
av y
 th ous
� �
 h ttp
ruct ure
 produ ction
 b oy
um e
 he ard
d own
S h
 econom y
” .
 en joy
 Aug ust
 tr ade
 S ch
f ace
 webs ite
im ent
 sec ret
 co ver
 reve al
 w ide
 bo ard
 m atch
 C ourt
A L
 allow ed
 hand s
 sp ent
 tra vel
 l ower
 re pe
at ory
 po ll
 st e
 includ ed
ce mber
 Oct ober
 ne igh
 leg isl
or ters
us es
 beh av
ict ion
 kn ew
 te xt
 want s
 to wn
ight s
 Brit ish
 se par
en ces
es tern
 vis it
 Canad a
an ks
ct ions
W ith
 per fect
 get s
z e
ess ion
 move ment
is hing
g round
age ment
 tri ed
 c ause
? ”
g est
  }
 for ces
 Sund ay
 en s
A fter
for ce
ce ed
 att ention
 partic ular
 b i
] [
en ing
 ve h
 b ud
 f ear
 pop ulation
 var ious
 U K
 re ach
m a
 look s
 2 3
 Calif ornia
 b rought
 v o
 K ore
 l ink
ib ly
) ;
ur ning
ar ily
 I S
2 00
 prev ious
E D
 m ention
 Russ ian
 mor ning
 Q u
c le
ide red
e g
' d
 f air
 grow th
ak er
 S w
und red
9 9
se qu
y ond
 pro gress
 fe ll
ra z
all ed
 s ong
i am
 C ont
A C
 tr aining
f ield
h old
u k
 s ize
 Bl ack
c ies
 De cember
ident s
 cont act
led ge
 H er
 dem and
Wh ile
 im age
 h or
 r ac
 h ot
ific ation
O S
 lead er
s et
ec ause
 rul es
 pre p
 l iber
 se arch
  ess
 P ost
 c itiz
 up on
 stru gg
 St reet
 lat est
c ome
 ind epend
U S
u ments
in ks
ar th
 feat ures
 co ach
ond on
 P ark
i ant
 f ast
T r
o o
sy ch
 talk ing
 J ew
om p
 add ition
g es
 st ar
 w ond
 Sen ate
I T
 P at
 spe ed
 ex am
 cons idered
ra q
ic les
ar ies
 re b
b ed
 level s
et h
 T imes
 Count y
ellig ence
 sl ow
 investig ation
p s
il le
 con duct
ap h
 Part y
2 2
 K ing
 med ical
 m ach
im ately
v ent
 a chie
 langu age
atur day
 c ard
 s n
un k
 s ort
 crit ic
op e
 T ex
 Cent er
 p en
 u nd
w o
 Ind ia
 p aper
ys is
I C
 200 8
p ir
 cons erv
 parent s
im in
 sex ual
 system s
 pri or
h a
u it
as c
 do ll
 writ ten
u f
 b ox
 sp okes
ig r
 see k
 s ens
he t
 doc ument
id ge
e ared
 incre asing
 he ar
an i
at form
 d raw
 se ven
 s on
 Mus lim
 eff ort
ru ary
 job s
 I ran
 ext reme
 prev ent
 lear n
in ing
 ser ious
 reg ul
r ast
 in n
 r ange
  ...
ro om
 viol ence
 e ight
 M ark
8 0
our ces
 I raq
it ch
O P
 sur ve
 complete ly
 con c
 200 9
 mess age
ic o
t r
  �
S he
 ob v
 interest ing
reed om
 sc reen
ab or
 opportun ity
e ff
 cl imate
2 4
e xt
 major ity
 K e
an ced
 partic ularly
 dou b
 j ournal
 R om
 des pite
 claim s
 Ch ar
 answ er
 soc iety
 L ondon
 def ense
 car ry
ent ially
am ing
 gu y
 ext ra
ens ion
m p
 Don ald
is ions
 attack s
 requ ired
er ve
ren ch
ill ed
 big gest
vertise ment
 E ast
 exact ly
i ers
 p aid
 M ore
ib r
 exper ien
 are n
ly ing
uc lear
ines e
 mod ern
 rem ain
 qu arter
 offic ers
et t
 h undred
 c ross
 ex cept
ut ions
ar i
 t able
 pract ice
 n atural
in ally
 m iddle
er c
 2 7
 certain ly
 d ro
ad d
os es
 S aturday
 st ories
 N et
 hist or
 g as
 product s
 sur v
 look ed
 somet imes
n ces
 st uff
 r out
 sc ience
 fin ally
 us er
A M
 sum mer
 mov ie
 bl ood
osp ital
av es
 commun ic
 a w
ous ly
 l ay
 chang ed
 on es
 lead ing
 describ ed
 S and
 im ag
 ter m
 Feb ruary
f l
 pr ison
 con vers
n y
 det ails
ic ks
 start ing
 S pe
 qu ality
 occ ur
 p an
h ib
 show ed
 n amed
 g iving
 u lt
 rem ains
 Mc C
u ing
 reg ion
pp er
 prov ided
 cost s
ak ers
 S oc
ar r
 dam age
 m ob
 d anger
 f it
augh t
 T H
 T ur
 ch ief
 po or
 p ath
 M or
id a
 educ ation
 mult iple
 contin ued
en ge
 I nt
 grow ing
N o
 dem onst
 C he
  *
 part s
y l
 2 6
 writ ing
 com ments
 2 8
 m ent
 main tain
 saf e
 ass ist
 think ing
 D es
in ary
 Republic ans
 E ven
 pur p
 requ est
 wr ite
 f ix
 it em
 p urch
ab les
 d ied
 Democrat ic
 C oun
F L
ag o
 read y
co in
 would n
 imp lement
2 3
 incre ased
 cult ure
f ort
 eff orts
 vot ers
u x
p re
 c amer
 m ill
al y
.. ..
op er
 read ing
mit ted
im inal
 f ile
 us ually
 call s
 sp ot
 effect s
I m
 G ener
z z
 per haps
b an
 al one
ar ian
il es
 F irst
 al though
 to wards
 Le ague
d e
 cons ist
 B ill
 Tex as
 se lect
 gu ys
 stand ard
 Mich ael
 sub st
 ce le
 be yond
 direct ly
 pl atform
 Ch inese
 ( @
 h ous
us ing
it ute
 spe ech
 real ity
ic ated
 k ids
 J ames
 av oid
 through out
 foot ball
 stud ent
ar a
 could n
row d
B I
 un f
f ord
 immedi ately
ou l
 ro b
 includ es
 c at
 con cept
e gr
 cent er
 cho ice
 sc ene
 comple x
an ch
 add itional
s p
 M on
 chall eng
 C ons
 w ife
 cl os
ur t
 t ro
 rec omm
 rese arc
R e
 ep is
he st
it or
A ll
  ver
 Min ister
 s le
 cor por
 � �
 design ed
 S er
ur g
ag on
 rem ember
 soft ware
 saf ety
 Ind ian
w ise
 g one
  il
ast ic
port s
 c ast
 se ll
 to ward
 ag ency
 t en
 offic er
ac hes
 fig ure
 pie ce
 br ain
om en
 bat tle
 J ack
m en
 coun ter
 deb ate
air s
ress ion
st on
 thous ands
ad em
 s we
ru pt
 op in
 a head
ic ient
N ow
im um
 rel ative
ir th
 let ter
 rece ive
 press ure
  �
 B o
 bl og
il ies
amp ions
  >
 s il
 mov ed
 la unch
 appear s
 o ption
 Pl ay
 pass ed
  ut
 pre c
 st age
ro y
o es
 6 0
 cle an
 S erv
ol ute
 I I
ate ver
ber g
O T
 proper ty
2 7
 help ed
am b
 dri ve
 App le
j ust
 alleg ed
 G reen
 tw e
n ew
 dis app
 t our
 mean ing
 ro ck
 do g
  x
 cr is
it ation
 Ass oci
 sus pect
 d ate
 R ich
augh ter
 mov ing
 sc ore
 Democrat s
 organ ization
 s at
 cond itions
 tou ch
 d ark
 comm and
 The n
  ign
? "
 re asons
 bud get
 p ark
m ore
 n uclear
 my self
 n om
 de g
 happ y
 dev ice
 differe nce
ri ef
 S im
 may be
ch an
 begin ning
A D
 cop y
 n ature
 fail ed
w ood
 f an
 charac ters
y an
 comput er
 enc our
 a im
 M art
 tit le
 w all
 comp ared
 le ague
ock ed
 Su per
iv ity
 est im
 V al
 St ar
 col lege
 ey es
 sh own
 Eng lish
 cent ury
 power ful
 D ay
le ase
our ce
 b al
ain t
 lim ited
 y es
 b and
 cont ribut
 pos itive
 for ced
 sc he
 necess ary
 ref er
 candid ate
 st ra
 dis p
3 5
ci ent
 book s
 tr ust
A P
 F rench
 larg est
2 6
 ar ch
ent y
 s al
 H ere
 conf erence
 R ober
a ud
 not e
 anal ysis
uf act
 sp ending
 president ial
4 5
 O f
 citiz ens
or ks
 school s
ig ration
 Syri a
 th row
ven ue
 B en
 a ware
 me ant
 execut ive
 event ually
M y
 phys ical
 follow ed
 fe ature
 treat ment
 c rowd
B e
 T or
 W ind
 f irm
 stre ng
 conf ir
 m ix
 b ott
er o
 cor rect
or ney
 2 9
a res
 D is
 gr ad
 relig ious
 eas ily
 aut om
 es c
 p us
b and
bo ard
I s
 co ol
et ro
 19 6
 fam ilies
 il leg
ress ed
c raft
c ul
r ated
 act ions
 over all
 A ir
 M ex
 allow s
 g ives
 fe ed
 � �
) :
 sus p
ub e
 your self
B y
 d raft
b um
k en
 sm art
 app eared
 det ail
 inc ome
ir ing
 anal y
 B el
 sign ed
N ew
en cies
 cent ral
 ide as
 an g
 Go vern
 sen ior
Ad vertisement
 fre qu
 weap ons
I D
 B re
 h ar
 dis play
 prom ot
 n ice
 cred it
 dec ades
 p sych
 polit ics
D on
 cr ime
O M
E C
 us es
in n
 do or
 dis e
ut y
 Intern ational
 un ique
2 8
 al tern
 l if
A ccording
 d rop
 s ales
m ar
 develop ed
A r
res h
 custom ers
E T
 benef its
 conf lic
ur ance
 rel ated
 cris is
 S chool
 m ist
er ry
i able
 pred ict
 not ed
 C ap
2 9
 Austral ia
 E U
 tr uth
b ox
p art
 go als
in y
 individual s
 ch arge
 E arth
 be aut
 contin ues
on ents
 Un ion
 Ar ab
 obs erv
 r ap
 chall enge
 st o
n own
 app arent
 Ang el
ite ly
 Sm ith
 l ic
 project s
 pe ace
 meas ure
 Pol ice
ot i
 int elligence
 Christ ian
 prev iously
 German y
 full y
 r ule
 man ager
 bro ther
 r ates
 adv ant
U n
ch ange
 exp and
 cle arly
 re form
 l ines
n et
 success ful
ri age
 high ly
 larg er
ound s
2 1
 tr aff
 sp read
i ance
 seem ed
 Coun cil
 stra ight
S ome
 cr iminal
 Com p
 min or
 em b
k i
 Geor ge
 program s
ic ed
at tle
ow ers
 Fr anc
 inc ident
 res ources
 T om
 great er
 prim ary
I A
in ated
ant ly
 know ledge
P ro
 stud ies
wh ile
d om
 sa ve
or ter
 we b
ate gy
e an
 ke pt
 att ract
 Fl or
ol ic
 sp ir
 em ot
qu e
 col or
 fe et
 C r
se y
 r are
 re ached
 A nt
sec ut
 ar m
 H igh
lev ision
 Intern et
 Bro wn
od ay
id ers
os h
 favor ite
 pl aces
r s
 R ec
 reg ular
w ide
ot a
ve re
 man ufact
 la un
 D ef
1 00
 s end
 pre m
 H am
ro ll
lic k
ic it
 know s
 shoot ing
 activ ity
 p un
 sour ces
 norm al
ic ago
b on
ter m
ing ly
on ent
s er
v ille
 stat us
 fight ing
 vo ice
 r ise
oc ks
 f ine
 own ers
 ca used
 claim ed
 M ac
 en em
 lit er
 R ob
 U p
 Gener al
a ith
E O
 opt ions
 200 7
 int egr
eng th
us ion
 sp end
 G old
ad o
 c ities
m iss
 organ iz
IN G
 end ed
il ed
 researc hers
 call ing
 sh ut
 ref lect
 L a
m ission
m ark
or g
” ,
ol es
7 0
ro id
 pr ices
 E very
 al bum
 F rom
if ying
 employ ees
 fem ale
 Eng land
y a
ww w
 v irt
 ha ven
 ra ised
mit tee
 e le
 j ump
u ana
3 3
 supp osed
it ness
 happ ens
 add ing
 polic ies
 n ames
 charg es
 pro s
 tr ou
ic a
rib ution
 bas ic
iver se
um an
N ot
 M ag
 concer ns
 trad itional
 wa it
ing er
 pl ant
 abs olute
 ac qu
 h ospital
 fund ing
r am
 B ay
 pr int
 sl ight
 com mer
ro l
 pat ients
 author ities
 min ister
S c
 creat ing
 f reedom
 A P
 me chan
 sc en
 M o
 st yle
 see ing
 gr and
. ’
 be at
 l ik
on a
ri an
 st ation
 Sc ott
se e
 p ush
ij uana
 behav ior
 be g
 le aving
 c ry
 im pl
 b irth
  ir
 act ual
E L
 ens ure
 off ered
p en
 agree ment
 Flor ida
 e th
so ft
 Hill ary
 post ed
 go ld
 S un
 week end
 g reen
 M ost
 B er
 Re g
 ad ult
al se
 we ight
O U
. '
ac ing
 deter min
 v ac
H ere
 reveal ed
 We ll
 applic ation
 most ly
 val ues
 prop os
it ude
 A lex
ab y
 will ing
ear ch
 r ank
 ad op
 A ccording
 estab l
 ey e
 record s
ect ion
� �
5 00
 en force
h ttp
 pict ure
 belie ved
p ri
 m er
u ild
 b rief
 L et
 lear ned
 L aw
 inst all
 str ategy
 app l
S A
ign ed
 cho ose
ist ry
 d ire
 wond er
 qu al
 mass ive
 dev ices
 benef it
 w ild
 part ies
 Ch icago
 law y
 Pe ople
 un s
c her
 c ars
 Tr ans
 P ort
c ont
 Ph il
 arrest ed
 m ount
 wh atever
 w at
 O h
 Fr ance
 stre et
  ;
 prov ides
 wh om
 ass ault
9 0
li ament
 ask ing
 influ ence
t ies
 jud ge
 l ose
 f at
 feel ing
 oper ations
 produ ced
 tem per
st e
 crit ical
 Sec ret
 L ou
 neg oti
p oint
 m ission
 ent er
 B ush
E x
 im ages
� �
 St ud
 confir med
 show ing
I L
 dist rict
ri ption
 run s
 pat tern
g en
 t end
 M at
 b order
 res idents
or ial
ra v
 deb t
How ever
  �
ak ed
n o
 c ru
 te ac
m ine
 Com mittee
ud d
 opp osition
C l
 cele br
 W all
 He alth
 se ction
 def end
 et c
est ic
 produ ce
ic ial
 Comm ission
 dr ink
 independ ent
 M od
r ont
ce ll
 Wh y
 br and
ent ed
ag s
u gg
 c ore
 P ress
 t ick
 dig ital
 B it
 he ro
 adv oc
a e
 doll ars
oc r
ri al
 effect ive
 sol ution
 M al
 v ill
 interest ed
 S am
 Kore a
B A
 hig hest
ord s
 mem ory
 open ing
 wor se
 lear ning
 respons ible
 tri al
 d aily
 k ick
 the ory
 O ther
 off ers
 Pal est
 repl ace
 rest rict
 G et
 m ur
 Off ice
 ag reed
 te levision
 Franc is
ci ence
 M icro
 B ecause
 occ as
S T
ill ing
C C
 tr ain
 invest ment
 v s
 typ es
i ation
 W estern
ak s
ic ians
 ch air
 mil es
 mill ions
ur ies
 che m
 Just ice
 D el
 gener ally
 bas is
 prop osed
 8 0
 M ike
 M il
 C up
The se
i pe
 he avy
 expl ained
 m ap
 O ur
A A
r ad
 d er
 b ur
o ly
 part ners
and er
 Ad d
 opin ion
w in
 def e
 on to
 prot est
C on
____ ____
G et
 associ ated
 l oad
r ig
az ing
 N FL
r ate
o om
4 4
 F ound
 m ale
 becom es
 re ject
out hern
== ==
 Sec urity
v est
 co al
 ob tain
 dest roy
 advant age
 ass um
 L iber
 cond ition
 announ ce
 hundred s
 achie ve
 open ed
el ine
 understand ing
od es
 John son
com ing
ic ip
 sur round
ad ing
ort hern
ber t
we ll
l a
u pp
 init ial
 A tt
 B ig
 sle ep
3 6
 sh ip
 mar riage
 man agement
 Wind ows
 th us
 lim it
 b orn
3 2
 becom ing
k nown
 ph oto
 eas ier
F C
 G reat
 r at
 legisl ation
 contro vers
 un like
 elect ric
 M any
 camer a
wit ch
 acc used
 s pl
 neigh bor
 dou ble
  ice
 spec ies
l ant
 sh ared
 jo in
 illeg al
 3 1
 L ab
 200 6
M r
 h arm
 mach ine
 serv ed
 J er
G B
 extreme ly
ol f
 act ive
 3 5
 ser ve
 doc uments
 Islam ic
 fr ame
z a
 stri k
le vel
 D ist
 aud ience
B S
 loc ation
 A M
 scient ists
 bott om
 victim s
 Ar t
or row
 we alth
 profess ional
 res ist
i h
 redu ce
 belie f
 n ine
 sol id
 win ning
 mar ijuana
ear s
 U k
 neg ative
7 5
if ul
 commun ities
 return ed
ortun ately
 b ed
 inc red
 P M
 Inst itute
m et
te red
 ch urch
P S
 dep artment
ir gin
 Sand ers
 r an
 vict ory
re y
 purp ose
 9 0
 Comm un
 am b
land s
 veh icle
 intern et
 leaders hip
i os
 H all
ist ics
 b omb
 mob ile
gh an
 inst ance
i pped
3 8
 separ ate
 exist ing
 not ice
 he aring
 d ie
 expl ain
 doub t
 f aith
 te ach
h ouse
 Y our
at ically
 epis ode
 watch ing
 com fort
 Canad ian
 B ank
 not es
 rad io
 E v
 f resh
 F in
 un c
 view s
 In c
 put ting
as y
 supp orters
 conserv ative
 p urs
 arg ument
om as
 m icro
ar io
ac ity
 laun ched
sc rib
w orks
O L
 app eal
ili ar
 item s
 commit tee
res p
 M ad
wh ich
 defin itely
 danger ous
ill er
P A
z en
 co verage
 dire ction
 O ver
 charg ed
 fl oor
 s un
 m ax
ograph y
3 4
E M
 Car ol
 Ch urch
 F ox
 iss ued
 drug s
Im age
i pp
 t ask
 back ground
 compet ition
 tre nd
 st ated
v ention
and om
ad a
 traff ic
 F BI
 commer cial
 D irect
ur b
it t
N A
 sp oke
 set t
in ct
 trans fer
 suggest ed
 st ructure
 sit es
 h us
 n orth
 S ince
 L ike
 rest aur
ampions hip
 lab or
 dec ade
 repe ated
 G ame
 re act
om an
 c ards
 anim als
go ing
 no vel
ct ors
b ut
rib ute
 d aughter
ant ed
 S l
 dri ving
 cl osed
 wor st
 cont ain
 entire ly
 d ed
 Brit ain
ad y
g ency
 dri ver
 W il
 dise ase
 tell ing
il ing
 small er
 disc overed
 n or
B l
ak istan
 ref ere
 P ri
A meric
 L os
i us
 h ack
he m
e qu
! ”
f erence
 Q ue
s pe
 f alse
 c ash
 concer ned
ul f
 pl ays
 sur face
se mb
 support ed
ann el
ul ated
 tool s
oy al
 comp ar
 trans port
 Ch ris
 exper iment
 find ing
n ight
 c ateg
� �
 as pect
# #
 business es
 7 0
 U N
a it
 far m
 ple ase
 old er
az on
h ow
 activ ities
 requ ires
ph one
C H
 g ay
 J ones
d o
ibr ary
 streng th
4 8
 we l
and on
 ins urance
 con sequ
3 7
 large ly
 mur der
N N
ic i
5 5
 ex erc
 c aught
 candid ates
k ins
 Israel i
 allow ing
ic y
 bl ue
 A re
 ann ual
 K en
 T re
 test ing
oss ible
 str ateg
 S up
 ra ise
 st ock
ar ant
o very
 Rober t
iz es
 dec isions
 acc ur
r ick
 cont ext
 f uel
 A c
S P
l or
os ure
 Uk rain
 concer n
 aff ord
 belie ves
 const ruction
 tr uly
** **
 T y
 M iss
 g e
 just ice
igr ants
 gener ation
 high light
 un it
r im
 pres ence
 Jew ish
ang ing
! !
 S il
� �
ter y
� �
cept ion
 Afric a
 gu ess
an cy
 w itness
it able
 hold ing
 G ree
 estab lish
 l ength
 plan ning
b re
av a
 Afric an
 se qu
ck now
 ref uge
 pl aced
 c atch
 Af ghan
 s an
in ter
 Associ ation
 tell s
� �
 sc ale
e y
 spokes man
 t im
n el
 r ough
 att end
oll y
 V er
 cell s
 jo ined
 P re
 mention ed
 interest s
 ab use
pect ive
 J im
M ore
 has n
 P C
L e
 init i
 enforce ment
 k id
 G OP
 introdu ced
 deli ver
 conflic t
 M er
 Micro soft
 ph il
— —
 upd ate
 miss ing
ro s
 prov iding
 wa iting
 can cer
3 9
 recomm end
ocr acy
 establ ished
is ation
 e at
b our
 Y es
 occ up
 Fr ank
 J eff
 Angel es
 rem oved
 200 5
ul a
 off ensive
 F ore
 Inst ead
ic on
 inj ury
 sp orts
4 7
 f ant
 discuss ion
v ant
 oper ation
 down load
 use ful
 news p
 convers ation
 hom es
ron ic
 s outh
 c ook
 C EO
 ass ess
 G roup
it z
form ation
l ig
 ban ks
ont o
 sto pped
 St ep
 Con st
 obv ious
ic ations
 meas ures
 mod els
 K h
 four th
 M P
O ur
se ason
D A
wh at
 b ul
and a
 201 8
 fil es
 girl s
 Lou is
 st ick
c ks
az ine
m ail
um n
 man aged
it er
app ed
 Palest in
ot ed
 fig ures
om s
 T im
 Le g
 ident ified
 gr aph
 J ud
 S al
 fin ished
 fund s
P l
 P akistan
re al
 set ting
 conc lud
 pre fer
 ha ir
 commit ted
 Mex ico
4 9
 sk ills
k in
 appro pri
 spir it
 R ock
 ve ter
 foc used
 arri ved
 TH E
 hous ing
 V irgin
 keep ing
 there fore
 a cknow
 det ect
ul ate
D es
 part ner
 ex clus
ig an
 And roid
ens es
up s
 ear th
 trans l
out s
pl ace
 t ough
 Japan ese
 200 0
 relative ly
� �
 Sup reme
ow l
w ing
 ident ity
 feel s
r d
 M et
 other wise
 surve y
R A
 R yan
oc al
ic ation
itution al
 protect ion
ag n
 ex change
 own er
is f
Tr ump
 step s
 In ter
 tri p
im b
 hus band
 M ont
 twe et
 connect ion
 Ar my
 slight ly
 Pro f
e ah
k a
 we ak
 Govern ment
ver se
" :
 circ um
 ele ments
 cl ick
 Rich ard
 stri ke
 phot os
g a
 me re
 def ensive
dd en
g ar
 g ain
 f le
 dep end
uck y
 col lection
ony m
hen s
 kill ing
 ro ll
igh ter
G o
 cor ner
 Mart in
anc ing
od ies
 suggest s
u ct
 ag gress
w ith
pro f
 gu ard
Ph oto
 g ender
m akers
 Col lege
 comm ission
 Al though
r ange
 d at
 S ur
4 6
 I r
 D ec
 ment al
ic ide
 am azing
re es
 S ub
h i
 plan et
 Te am
ren cy
 O ut
 big ger
 fail ure
y m
 J ose
 supp ly
Wh y
an ia
 N or
 start s
g ers
 s ides
hed ul
is er
 fam iliar
 rem ind
 su st
 spe ct
il s
u ate
 spe aking
an o
 tal ks
 happen ing
m as
gy pt
 organiz ations
 h ate
 wind ow
 ar my
 G ood
 J oe
 n one
u ke
 tax es
 plan ned
 P et
 than ks
 M ary
 st ruct
 p it
 dec ide
 su dden
 w ish
l o
 cre w
 car ried
 app oint
ost on
 p et
a wn
el ess
ag ues
yn am
 reg ist
T C
 mult i
id ering
 help ing
L ast
 a ward
 stand ards
 3 2
 F ire
 rev olution
 environment al
] .
 We b
ars h
 Th omas
ol it
 sc ript
p m
ol a
 second s
g n
r un
 Res earch
 scient ific
 B ern
 imm igration
 stand ing
 The ir
 4 5
st ream
oc ol
 qu e
 be er
 dom estic
im al
ad ium
 p air
ut ers
 Al so
 Secret ary
 U s
 ac adem
 co ld
 var iety
 mark ets
 s ch
f e
H L
 ter rit
 dro pped
 account s
! "
 At lant
 fil ed
er ous
ack s
ill a
 bal ance
 imp ossible
 T er
a ven
 inter act
 neighbor hood
 deg ree
R ead
 turn s
ore s
it ect
 poss ibly
 app re
 oper ating
 pr inc
 altern ative
 un ion
 vot es
 v ul
ad er
 profess or
 t ack
 Serv ice
 increasing ly
ay er
ru it
 app ly
 fell ow
 cut s
ste in
 hon est
 Pr ime
 un ivers
 ser ver
v is
 develop ers
ar ks
 Syri an
 apparent ly
ab b
are n
 l ived
 chang ing
 wor ry
rast ructure
 Carol ina
 test s
 un its
 r ich
 T wo
c ious
ict ed
F rom
ad ed
 hum ans
I M
 Found ation
 M os
 ag encies
 sound s
as hed
 tw ice
 ult imately
ob by
 l osing
 phil os
 author ity
 sold iers
� �
 anim al
g u
 Im ages
 set tle
 at h
 sc hedul
 m ut
 col le
 corpor ate
 absolute ly
 health y
 pay ing
o ch
 equ ip
i ams
 develop ing
 se a
 T ime
 clos er
 D en
 inn ov
rel ated
 seek ing
 regard ing
c oh
rou d
 sk in
 exp ensive
ans ion
 poss ibility
 beaut iful
 relig ion
 ap art
 Cent ral
 fund ament
 exper ts
 sol ar
6 5
 y ards
 v ast
 writ er
 fl ight
 Dist rict
 L ast
 de ploy
 ad just
O f
 intern al
 t ast
 U nder
 L at
3 1
 P eter
ap ers
 imag ine
 J on
I V
 applic ations
i ot
olog ies
 v ision
l ook
st ate
os en
 Francis co
 Tor onto
d en
 sit ting
 Pl an
 tr ail
 un less
 US A
 J es
ist ed
 he at
 200 4
E ven
 respons ibility
 cap acity
I P
at ures
 M iddle
 er ror
ain e
i as
 sy mb
 f ol
 ar ms
 p il
 g ar
p ire
 c overed
idd en
 B ur
 fam ous
 C amp
 for ms
u zz
N D
 un iversity
 gu arant
 t ight
 present ed
ort ion
ov ing
en ced
 S T
 E gypt
 ear n
 P ut
 conv ention
u nder
J ust
 P ublic
 surpr ise
 att orney
 elect ions
 estim ated
 f if
 A ri
 te en
 inst it
 veh icles
rib le
 Am azon
ro ad
 int ended
 r id
 o dd
 help s
 occur red
p erson
 stre ets
ust er
h and
in i
 B oston
 S ol
 = >
= "
 M ur
 sp ort
s en
 deter mine
ress ive
 Bit coin
 exper t
all s
 cons ult
ur ation
 bro ken
L et
le ts
 f ired
 t on
 fl ow
 dom in
 G al
por ary
ed er
L E
 sh all
 res erv
U p
 tro ops
I ON
 Th ose
 hy p
 n ar
ter day
 pie ces
 Ch ief
 prep ared
 M ass
 C ath
 rap id
g l
or age
 J o
 loc ated
 Soc ial
 b aby
-------- --------
 con clus
 bring ing
anc he
 Pro t
 pro ve
 specific ally
 An y
 pot entially
 se ctor
 r andom
 j ail
O W
 se lling
 govern ments
 O nce
 sc r
A b
 equ al
cl ass
w ar
 f aster
 he av
 S pr
 bo ost
use um
ve y
 cl in
 propos al
ot y
 fact ors
 pl enty
T H
 equip ment
 coun cil
 er a
 inf rastructure
D o
 st ress
ph as
 st ars
 J ournal
 R ub
end ment
 Virgin ia
 b reat
 pro secut
 vot ed
 off ering
 car bon
in ent
 express ed
 vul ner
 comb at
 Par is
 bro ke
( )
ure au
 cl ot
our s
 rul ing
 F ederal
 ret ail
 Gu ard
 ref used
 dr am
 D an
 elect ed
 O pen
 R iver
E very
 sec ure
ce an
 se asons
 conduct ed
, '
h t
 challeng es
 rem ove
is her
 S ant
 method s
 weap on
n oon
 point ed
 Is land
 m aster
 rem ained
 Austral ian
 pr ime
EN T
 tr ig
 pos itions
 C ru
 d in
 M el
 critic ism
i pping
F irst
ock ing
 Med ic
 P lease
ro g
on om
I G
 s ale
ol ved
 F e
 cult ural
th at
 were n
 significant ly
 b row
et ic
 orig inally
ri e
 D uring
 affect ed
 appear ance
 c as
 t ourn
 fac ing
 great est
 fin ish
 Le e
 st ret
y r
 you th
 te le
 Wh o
 C ur
 percent age
 Ph oto
c ol
 determin ed
 sign s
 invol ve
9 5
ce l
� �
6 4
 than k
 b ought
 5 00
ly n
 S ing
stand ing
 chem ical
ash ion
 sh ape
 v ir
 reg ime
 g rew
p ired
 rem aining
 Ste ve
ly mp
 min imum
 S aud
re ens
 ind eed
 d ream
ri er
S ince
 m arg
S p
 B oth
> >
 mod e
 her self
 vot ing
 Col or
 obv iously
 For ce
 redu ced
ord in
 N ov
 w ood
 R em
 record ed
 arg ued
 199 0
 re venue
 t act
 R o
 we aring
al ing
igh ters
 lead s
ed ia
 h un
 polit icians
 pl us
 cont rast
 s witch
 hand le
 purch ase
 th r
 sub s
 con cent
 pro ced
� �
 ag ent
ar p
 Will iams
 appre ci
 experien ced
 h urt
t op
 exc ited
 vide os
 http s
coh ol
 support ing
D P
 H aw
m m
ow nt
 F ree
 surpr ising
 min ute
od d
 expl os
 bel ong
 consum ers
 ident ify
 cons idering
 P ac
 Cons erv
ll er
ap ter
 air craft
 re nt
 a id
C L
 pull ed
g ment
 bas ically
 differe nces
og ue
 B ook
 gl ass
 after noon
 sh ift
 dis s
 R ad
 dep art
 end s
ess ions
 t urning
 b ound
 fil ms
 sp ring
 pros pect
ru ption
k et
 Char l
h ab
 m ort
0 5
l ife
 tre ated
 acc ident
, [
0 1
 mot iv
 list en
 se at
 P ower
ut s
 comb ined
 const ruct
I nd
 ser iously
 priv acy
app ing
 even ing
he red
h y
 opportun ities
as p
 strugg le
 19 5
 pan el
 enem y
 lot s
 comple ted
 D aily
 vis ual
H is
Ph one
p et
 talk ed
 c art
 hop es
or al
 pass ing
  id
 app s
os ite
P D
 cal cul
An other
 wide ly
ens ions
 emer gency
 H ol
 Sh ow
 su it
 e lement
am m
 a st
ang ed
S S
al ed
uc ks
 p owers
at o
 R el
 B BC
 O lymp
 b urn
T V
 disc l
P e
 pl ants
 fl at
 Sp ace
 liber al
ra ud
ob e
 opp osed
W ell
 pro ceed
om pl
 copy right
ok ing
 Pro ject
 adv ance
 fact or
 dist ance
 200 3
ive red
 dis miss
pl om
 attempt s
 t un
 M att
 R oad
ab ilities
A m
ribut ed
 I N
 trou ble
un ction
 h ol
 coll abor
 def ault
st s
id el
 B et
 z one
 Jack son
 up gr
ra wn
it a
C ont
 re action
 st orm
 rep orters
 M em
 fr ust
P R
ne ll
m osp
ad ow
 writ es
m ond
ain ts
 typ ically
 T oday
l ines
resp ond
U T
 p ages
 inst ruct
tern al
ed s
 ref erence
 pack age
 b odies
z er
 mat ters
f ree
4 2
 den ied
c are
ed d
A pp
 qu ant
 disapp oint
 se m
 expl o
 N AS
 opt im
ac he
 qu iet
 ent ertain
 m al
 respond ed
 appro ved
 Tur key
 sat isf
ap ed
 broad cast
es ters
 instit utions
 ad vert
 stand s
 Direct or
 set s
est ival
 el imin
is ters
raz y
� �
R ep
 P enn
 val id
h ost
 re new
 Oh io
ell y
00 00
 spl it
 se vere
 Will iam
 s ac
 cap able
 200 1
  //
 p itch
ab in
ani el
 capt ion
 cl oud
 l oved
 techn ical
 g iant
p ass
 can n
 trad ition
r ant
 prom pt
 b ull
 conf ident
u ous
 conf idence
 num erous
 reported ly
 M a
 fac es
] ,
w rit
 we ather
 f ly
 trans ition
r id
 3 6
 Sy stem
 Afghan istan
 g ra
 S qu
 cre ation
D e
 pers pective
 un able
 for get
 Lab our
 Y et
4 3
as tern
em ploy
ok en
 Med ia
ang ers
I I
un te
 c raft
 subst ant
 co oper
 viol ent
 suff ered
il it
 co ast
 m and
amp ion
 pict ures
 experien ces
 appro x
ab led
 rout e
8 8
se x
 fl ag
 adv ice
 And rew
us iness
 decl ared
 W al
 ord ered
 H uman
raz il
 cr imes
 co ff
S e
 p roud
is hes
 report ing
 mess ages
 circum st
 find ings
 L in
R es
 ev al
ul ations
 ex cell
O ver
 decl ined
 expl ains
 del ay
  \
 F ollow
 newsp aper
ound ed
 connect ed
il ty
 should n
ev in
ov es
 on going
c an
 v an
du le
 mov ies
 pick ed
ion ally
res ents
7 7
 ad mitted
 del ivered
D uring
 gun s
 M L
 Sc ot
 walk ing
 ag ents
c alled
 pr in
t ion
 edit or
 though ts
 mar ried
 T ra
 a uth
 em ails
 appropri ate
 em phas
u ations
 ed ge
 arch itect
 Gr and
 le aves
 upd ates
 acc ompl
O D
 g ather
 Muslim s
 for g
ans as
 W ood
 quarter back
 s ession
o oth
4 1
 Te chn
 po ol
 S cience
c os
 inj ured
ar n
 public ly
ell ow
 S ov
 state ments
 per man
 leg it
ar l
ner gy
M A
 conf irm
 L ake
 our selves
O ther
 real ize
 ro t
 dri vers
 A v
 D ou
T A
m ates
, ’
 ar med
ess or
 d ial
c ons
 lawy er
our ney
 r ail
 read ers
re land
 s ad
 cont ains
 arg ue
 Re v
 tal ent
 f illed
 S um
 alleg ations
 activ ists
 Christ mas
 d ynam
 198 0
 Mich igan
d ate
 B ack
 R on
 cr ack
 trans form
T ube
 I ll
 build ings
 Re ad
l ong
 we ar
M any
 terror ist
 s am
 t ree
 exerc ise
end a
 lab el
 effect ively
O h
 pract ices
al a
 sub sequ
 J ul
 S her
ul s
 fl o
T S
 f ish
et te
ent ure
 sh op
 exam ples
 H y
 pat ient
 G en
 Se attle
 object s
 te ch
 Se e
 secret ary
as ure
 r ain
 miss ed
 ca uses
ill y
r um
 deb ut
 R od
g ia
 ess entially
6 6
am in
 mor al
ord ers
ad or
w ord
ac ter
 W ork
d ef
ar ters
 Ukrain e
 cent re
F ollow
 V ict
b ur
 St an
 I D
ic ing
 inj uries
 Ph ot
 mot or
 i Phone
 art ist
 cl ient
 b ond
 th inks
i at
or se
ou ston
 p ure
 he ll
Al though
 Saud i
 fact s
� �
 des ire
ag ers
az a
 s ke
or ry
 link ed
� �
 govern or
 material s
 perform ed
S pe
 fr anch
es ome
 su c
 philos oph
 init ially
i est
 S ign
 necess arily
 B at
 F er
 exp ansion
 schedul ed
w ater
ER S
 war ned
 di plom
 adv anced
  ing
 expl an
 var i
 every body
 j oint
 dec re
 res olution
 incre ases
en ger
Y es
 accept ed
 inc or
 my ster
 fac ed
 b are
ill ance
 M ount
 announce ment
 follow s
 n ations
 play off
 L ife
 ab andon
 Sec ond
 rad ical
 ath let
 ne ither
 yes terday
g ent
 dat ab
 near by
 dist ribution
ot ic
 appl ied
ir ty
 mag azine
M ost
ath an
r ich
 m ir
 consequ ences
 do ctor
 list ed
 for t
u y
 Col umb
 at mosp
Americ an
 surpr ised
 off ense
Q u
it ors
 C NN
 R E
 sp ons
 beg ins
 We ek
 threat s
semb ly
 rep resents
 Jew s
 G M
 A ff
 en h
 mov es
 rem ark
 T O
 p ra
 song s
k ay
 ch art
 behav i
om in
 r ide
 add s
 with d
C an
� �
 impro ved
 p hen
 Bl ue
 b ot
 war m
 a f
 al cohol
ri p
 A T
 out put
l aw
 fl ood
 De velop
 H en
w hel
ed y
 sh ots
 f ill
 V ol
 al t
 st ood
 br ings
 pus hed
 gu ilty
 Rom ney
 K im
 sub scrib
8 5
 ent ry
ocrat ic
 B razil
 dem ocracy
 boy s
 3 3
 ro w
 Sw ed
 conf ig
 restaur ant
 N BA
 laws uit
 De v
 I reland
ac le
 manufact ure
 rece iving
 re in
 Bar ack
The n
 t rib
 tot ally
 On ly
 discuss ed
 s ought
 r ising
 ent ered
 IS IS
 Bo ard
 consist ent
 histor ical
t witter
ide o
 st orage
 cor respond
 plan e
 comb ination
 sc ored
 in put
 3 00
 symb ol
 br ight
 but ton
ird s
 suc ceed
st ood
 creat ive
 invest ors
 squ are
 art icles
 200 2
 is land
m es
 death s
 fun ctions
 net works
 class es
 unlike ly
al ty
 head s
ic ian
 b oss
 n ative
ic ious
 l ie
 sa v
 L ib
 rough ly
 consum er
 St r
 W he
 W alk
 P rem
f ortunately
 M s
 str ing
 May be
 heav ily
 An other
 fair ly
 temper ature
ard en
 k it
 exist ence
 It s
 As ia
 cont est
A dd
 pl ot
iss ions
d is
 C ub
 res ident
us al
 targ ets
 B ob
 res c
 Kore an
ic an
du c
 l ock
 young er
M an
' ,
 colle agues
P U
 l ibrary
� �
 r ally
 par liament
 prot ests
 any where
ok ed
 S ports
 S ky
 b ike
z ona
 bre aking
i i
 gr ab
 sy m
 store s
 express ion
 was te
 ch ain
 bl ow
 war ning
 import ance
 def ined
 bu ying
 man age
 pro hib
 class ic
 c ere
 s now
 adult s
 ill ust
 E ach
S ee
 market ing
O b
 l inks
� �
iqu es
 sh if
b orn
and al
 Cl ub
 to w
 H ist
 f raud
O C
 fac ility
olly wood
ere nces
 hard ware
 sch ol
 alleged ly
 3 7
 regul ations
p ret
 do ctors
 b on
 Color ado
 cur rency
 house hold
 repl aced
ag an
 ess ential
op y
 em pt
on na
 R am
 some what
 D iv
p ress
8 6
 n av
 fav our
p ower
 prom ise
 D C
 B oy
 l augh
en a
P ol
 R ights
 hold s
 opp osite
ock et
� �
 mom ents
w est
 h at
ter ing
 opp onent
 bu g
 F ar
ch o
 camp us
 act s
 r um
etro it
 vers ions
 mot ion
 met al
hip s
 ev olution
omet imes
 v ice
an ish
 rele vant
 se es
 Im age
 b ag
 indust rial
 z ero
I R
 s ick
 d ownt
om a
 close ly
 An n
het ic
 emot ional
c hen
g ame
I F
 You Tube
 Y ear
v a
 few er
 div ision
ol ve
 ad m
 hard er
 custom er
 hop ing
olog ist
 to m
 Bro ok
Don ald
E n
 Val ley
 h ur
 G ra
 mechan ism
it tle
m l
 H ouston
 E lect
in em
 return s
N C
ate ll
 vol unte
 particip ants
 ext ent
 int ention
p o
al ian
es c
el lect
 excell ent
 Sov iet
 acknow led
 sy n
ul ous
om ing
 M ot
 bat t
 G ames
 squ ad
g reg
 circumst ances
p an
 f ashion
 is ol
� �
ot al
 immedi ate
 E ric
 suff ering
 W atch
st r
 l ies
 t iny
 auth ors
 3 8
 g rown
 G ar
ig er
ef ully
 imm igrants
� �
pr int
or a
 kind s
ut ch
 4 9
 D ie
 che ap
 m ine
 detail ed
ord an
 H el
n ame
 feat ured
 W ik
 E r
 S ar
ay ers
 me at
 un us
 A ut
 compet itive
 describ e
 for med
 H ome
 I P
f riend
n ic
cer tain
 carry ing
 tourn ament
 ter min
 tr ick
 relationship s
 fundament al
ke l
 w ave
 cy cle
ob b
 c razy
 C y
 sign ing
 W ay
 gu ide
 w ins
 Cath olic
 ear ned
0 8
 dec line
 reg ional
n am
ens us
st yle
 em br
 str ange
 Palestin ian
 Jes us
 L ong
 an cient
 frequ ently
0 6
 act ing
 Put in
 man ner
 eff icient
rom e
 pus hing
 C IA
 comfort able
 C ard
 p ip
O RE
P er
 sh aring
 w ire
 sk ill
 E conom
oc key
c hers
 inst ru
 E ll
 own ed
b ar
 commit ment
 along side
 O F
u ated
an es
 L ord
0 9
 Dav is
r ison
 controvers ial
 art ists
 refer red
we ight
 e gg
 m outh
 repeated ly
 4 8
 T op
� �
 3 4
F P
aw a
 attempt ed
 fem in
um ber
 upd ated
f oot
 c ert
u a
 pre gn
 O ld
 sche dule
v in
x y
 P S
am ily
ad el
 ded icated
� �
 A L
 sent ence
 up coming
 R ight
 N Y
 D own
 D i
 col umn
h us
 dep th
 pl ed
 virt ual
u able
 j ourney
 stru ck
� �
 des k
 stud io
 real ized
 E nergy
Des pite
ce ived
% )
ograph ic
k o
u gh
 med ic
D S
 serv ing
iam i
 walk ed
ri ve
iven ess
 k ing
 r ing
 rep ut
y ou
 ur ban
ph y
0 7
 C le
 Char les
 W ild
 target ed
 ch annel
 ass ets
lud ing
 t ort
 ins pired
 hot el
 Ari zona
 post s
 news let
L ike
T wo
 Su pp
 un iverse
 ag enda
 ca using
 wat ched
 su icide
 stre am
 over whel
 P y
 us ual
 surve illance
 M en
 int ent
so le
Pe ople
 l iqu
 s ister
 opp onents
 chair man
 d u
 W ars
 Cru z
 main stream
g or
b el
 lat ter
 h all
 surround ing
 fol ks
 know ing
 ord ers
 In f
 rem ote
 7 5
 s and
 liter ally
 J ava
 observ ed
 Ag ain
 subs id
F r
 Def ense
 inf l
 appro val
ac c
 V an
im ents
 bas ket
ren ce
b urg
 teac hers
az i
av or
iz z
 win ter
ici ency
al le
 exc iting
az e
i ro
ay lor
 T al
 form at
b oy
 con gress
 protect ed
at i
 not iced
 sim pl
 deal ing
 You ng
r ations
 Ch ild
 prec ise
6 7
x ual
 deep ly
i pl
 communic ation
 g ang
 s ending
 for th
 J r
 f asc
 bat tery
 w al
m un
 sk y
 n arr
 fix ed
p ost
ab is
 as ide
 require ments
I nt
 proper ties
r ors
 al ive
 nar row
 w ake
all as
 pass ion
 Ar ch
onym ous
 e ating
O r
ens ity
 mist ake
w oman
 expl ore
 coff ee
 P an
 197 0
 ra pe
 vol ume
 prom ised
 d iet
ack ing
 ris ks
 ex hib
 Pol it
 F ort
 swe et
M ay
’ .
 En ter
 W at
 ne ut
 invol ving
 w age
 se lection
 M ax
 test ed
et her
 fl u
ult ure
 defe at
 n orthern
 re ward
 wel come
 C ast
 ext ended
 put s
 territ ory
 phen omen
 un employ
 refuge es
 s ample
 he ight
 approx imately
 K evin
5 9
 bl ame
 Br ad
 any way
um s
 D etroit
 destroy ed
ob ile
t a
 imp ressive
 Step hen
as ks
 g od
 pro of
 g ap
 d ry
� �
 cr ash
 un known
 loc ations
0 4
ig g
 select ed
ap se
 w est
ang es
ger y
st one
 F il
 attack ed
 max imum
 M iller
 Wil son
 T it
 prom ote
 she l
as er
 mere ly
 franch ise
ar ry
l v
 requ ests
 sh o
 ret ire
 sudden ly
 slow ly
 prot esters
 dis ag
d ro
 teac her
i xt
 typ ical
og an
 W omen
 In s
ing u
 con ver
l ist
 ch ose
 C amer
 Cl ass
 L u
 mat ches
 pro te
 lic ense
 proper ly
 ass ume
or ation
 disc over
0 3
 w id
 P R
 M ic
R el
 wor ried
 mod er
f ire
 ab ortion
ow ered
 all ies
a o
 ob lig
 terror ism
0 2
 support s
  �
uild ing
Ã Â
ins on
ver ty
 arg uments
 ad apt
 them e
 conf ront
 fac ilities
 sust ain
g ender
 e ast
 p al
 recogn ize
ig ure
 f uck
ÃÂ ÃÂ
l ies
 equ ival
m o
 obtain ed
 po verty
 r ub
 It aly
 nom ine
 de als
 fe es
al o
it arian
os is
 H ollywood
 under stood
 contro lled
V ER
 B est
 D am
 top ic
 crit ics
 Soc iety
 Ag ency
ax y
 F ord
 so le
 Jer sey
ar ity
 vill age
 di agn
 Ad minist
ra id
6 8
 lik es
ce ler
h an
st ers
 F our
 ev il
T e
 pun ish
 d ress
c ript
 p ed
 Geor gia
 b unch
 Comp any
 journal ists
J ohn
 exp osed
 reg ions
red it
oc ation
 sche me
 communic ations
 trans p
 st im
 lim its
 some how
 strong ly
 hon or
 dr ag
 resist ance
ll s
a ire
au g
 ch ampion
 L abor
 const ant
 ph ase
 NAS A
ast s
 Car l
p ool
 prof it
 tr uck
 cond em
 esc ape
 person ally
 N ight
 D un
rim ination
 L and
 b id
 N HL
 St and
 vac c
 dec k
C A
nes ota
if orm
 fall ing
GB T
 Net work
 some where
em s
c ers
 employ ee
 har ass
ad s
 be ar
 C D
in er
 compar ison
ort ed
ci ples
 poll s
ow a
 in qu
 L ove
pect ed
 s outhern
or ic
 dec ent
c ow
 Sp anish
 encour age
 em issions
 3 9
 K n
 V iew
end ers
 empt y
 M iami
 h its
ost er
 C am
 defin ition
5 7
 p ic
w an
 direct ed
p es
 f lex
z ens
 O k
 meet ings
 E nd
 B ell
о �
 comp rom
 win ner
int end
ick en
 got ten
 D aniel
 Tur k
 electric ity
a un
 ch osen
 offic ially
 ben ch
 stret ch
 datab ase
C om
 Des pite
 int ellect
 sp in
ig ation
 strong er
 de leg
 purp oses
 D NA
 cut ting
 T urn
 f old
r ary
 ext ensive
 amount s
 des per
 tre es
 an x
 ide al
 As ian
 th read
 fif th
� �
U R
 good s
 col on
 develop er
 claim ing
un ning
An y
 re tain
 s oul
 capt ured
 Th ough
 find s
 dri ven
 pay ments
as ters
 J ordan
r as
C S
 t ies
 reason able
 dog s
� �
 some body
 end ing
 N ations
 cho ices
 b le
 se ats
 Serv ices
 Th ank
 p od
 eng age
 d rawn
 s ight
C E
 par am
 D ar
 threat ened
 rul ed
ep ing
 Att orney
 Ir ish
ur a
 Se a
 trad ing
ow ed
 prim arily
 aspect s
 f ighters
M L
 answ ers
 perfect ly
ir ms
 Ac adem
 inc l
 r ival
 park ing
 reject ed
 G all
 const antly
 H un
f ast
 pay ment
 C at
 dist inct
 f lying
 r ig
 techn ologies
 Re al
< /
 comp onents
Pol ice
 ad mit
 Scot land
 else where
 D ark
 const it
 t ur
 any more
ld er
  icon
 field s
 estim ates
E W
se a
 sol utions
 result ing
7 8
 B ru
 aw esome
 enc oun
 prov ince
m od
 world wide
 act or
 reg ularly
 Mo ore
 cour ts
 narr ative
 U t
O nce
 b oot
 enem ies
 mix ed
reg on
 O S
 Dis ney
s m
ic er
 hous es
 no body
 S k
in ations
 control s
 W ater
 let ters
e z
ap es
ag ram
ian a
im p
 4 2
 m urd
 may or
 lo an
 out come
 M S
 cont em
se ll
S ec
v y
s hip
 L ight
on ic
is an
 ap artment
 Ste ven
 coal ition
 contribut ed
 B as
 t ank
 conclud ed
 Ad am
 ex ists
 T w
 found er
 B rian
ear ing
 L ew
 atmosp here
 prof ile
 bre w
 I d
 sit uations
 Ch ampionship
 A uthor
r ates
 incred ible
 Const itution
 sign al
ot es
 R og
 accur ate
3 00
 Vict or
ot ten
 un p
 W here
k er
 S outhern
." [
 employ ment
 cl ients
D r
 keep s
 inform ed
 contin uing
in ity
 base ball
 gener ate
 tick et
 con ven
Al so
 Con f
 we ird
 t ied
l ock
adel ph
 categ ory
 inf ect
il arly
ack ed
 ang ry
 Or gan
 rout ine
ar on
 k il
 ra ising
if er
 mach ines
 regist ered
 prov ed
the re
 dem ands
 g aming
 It alian
 incred ibly
 cru cial
 st uck
 C ivil
 D allas
c r
 ter rible
5 6
M P
 feed back
 u pper
 pl astic
 im per
 new ly
 Jose ph
 consum ption
 do zen
 ent hus
 est ate
al i
r age
 inn oc
 man ip
 T em
 cons cious
 bill s
 C ross
 Sp ain
ific ations
T oday
 writ ers
 ex cess
ind ing
 aggress ive
 rep orter
 comp ens
 ret urning
 st ead
 program ming
 Th anks
 represent ed
 conclus ion
9 8
 r us
 B owl
 A R
M S
 orig in
 assist ant
adelph ia
 ro ster
 Min nesota
 organ ized
ri a
 pen alty
l ers
 drink ing
 pain t
 s atell
 g ro
 Pro gram
 capt ure
n i
 cons pir
 inter pret
 explan ation
isc al
5 8
 count y
isc ons
ess ed
m ont
im a
  %
ann y
gor ith
em en
iscons in
 assist ance
 Rom an
 compl aint
 r u
 n ut
L A
 mag ic
 t all
 O per
 gr anted
E d
B ecause
 Cont in
st ar
O ff
 Par liament
 compl icated
 aud io
 ch ances
 ext ract
ry pt
 G i
 199 9
 he l
 E duc
er a
 sh ares
 success fully
es y
.... ....
 I T
z y
 pil ot
 E p
 H ot
 my th
 rec overy
 T est
 techn iques
  iron
 C are
 Z eal
 S C
 scen es
 F re
 veter an
 W in
 ( $
 deg rees
act ions
k ed
 sym pt
the w
 law makers
 w estern
 oper ate
 ad s
r ating
 ha bit
 aim ed
In st
anche ster
 ph r
re p
re te
 tast e
id ency
 eng aged
 priv ile
 5 5
==== ====
 r ating
 teach ing
 O s
 academ ic
it ar
 the rap
 pass es
 doll ar
he nt
 autom atically
 Pac ific
 mon it
 bl ocks
ab ama
 att ended
 perman ent
 surv ive
u an
 ant icip
 en able
 L ook
 ext rem
 Fore ign
ch ain
% .
 mark ed
it als
 h idden
 acc omp
 tit les
 Sen ator
 N BC
 t aught
a ed
 Lin ux
 b om
 ind ex
ever al
 el ite
ib ilities
 lawy ers
f rom
 dep ending
 val uable
 inst alled
 ch ampionship
 ro ot
 comp re
m al
 B ull
 downt own
 equival ent
 sol ve
r ific
 d uty
 Spe cial
 B usiness
 6 4
 p ace
H S
 reput ation
 un certain
 ph ones
u ine
 over se
b al
 T aylor
 person nel
 p in
re ams
atur ally
 suff icient
 vis ited
 war ming
 prin ciples
 vulner able
 enjoy ed
 f ake
 N ick
 adv is
 negoti ations
ind er
 gener ated
 exp osure
 rec ording
 collect ed
 regard less
 d ict
E A
 bit coin
 e lev
� �
act ive
 K elly
 An th
 c up
 pattern s
Get ty
 T ake
) )
 A venue
 J osh
b ro
 dis aster
 c able
 6 5
 ch at
 work er
 main ly
 rac ial
qu arters
 Co ast
 V iet
mon th
 p ounds
 1 50
 C all
 port ion
 af raid
 ins pir
 A h
 def ence
 b es
 E astern
d a
 T ony
 track s
 bus y
 gr ant
 sh it
 int ense
 Ser ies
 L GBT
or ne
 St ill
ath y
 fun ny
 ap olog
 sur gery
 Mos cow
man n
 C oll
 poss ession
 prom inent
 M ars
 com ic
 G er
as hes
9 7
ul es
 R ay
 th in
 engine ering
 trou b
 K urd
th is
 process es
 N ation
f all
 K ent
 C ome
 ent it
  ’
 unus ual
rap h
et ary
 describ es
C ol
w orld
9 6
 result ed
 emer ged
 tax p
 g all
il er
 d im
 prop ag
 I owa
 O regon
 co ordin
 cor ruption
 st ations
 In vest
 f ought
 A D
 br ut
 ext ension
re f
 bl ind
 adop ted
pr ise
y e
 compet e
 rec ru
 Zeal and
 had n
P r
 4 00
 m ail
 every where
 B alt
 cry pt
 H om
b a
R ec
M ean
he rent
ic ate
 A li
 contract s
f ront
 ne uro
 L o
 De ad
 R ick
 feel ings
 f irms
idel ines
’ ,
 minor ity
 sp r
c les
H A
 advert ising
t es
 rare ly
 disc ipl
m aking
 N orthern
 san ctions
g un
 V eg
sc ape
 Phil adelphia
up id
 camer as
 expl icit
 str ict
v iously
l og
 en orm
 fin ance
 c ited
if ies
 Be fore
 short ly
U L
 Pol icy
ol t
 expect ations
 implement ation
og en
 rec ip
cl ing
 Gree k
 th ick
 thous and
ant ic
 M u
 l oud
ist ent
 aff ili
ur rent
or ough
 N avy
 in ev
re ll
c us
 phot ograph
 med ium
az z
 W isconsin
 scen ario
 F ood
 L ive
 su p
il ton
 pl ug
 ve get
 h o
 vis ible
L C
 light s
 creat es
 prior ity
 v en
 br idge
el and
ink ing
 ob st
 ag ric
AT E
 per mission
 F oot
 al gorith
iz on
C o
e lect
 particip ate
ask a
 w ing
wh o
as ion
 brow ser
 Gl obal
 t ag
 O l
 H as
 m el
 ac celer
 do zens
 King dom
 histor ic
 comput ers
 la id
 basket ball
 loss es
te xt
 S af
 As h
7 6
og ether
 un w
: :
 t or
 Am endment
M ar
 strik es
 princ iple
 Develop ment
 form al
E P
ig en
5 4
 sc oring
ob s
at hered
 4 4
 coun sel
f ound
+ +
 sh ock
 wonder ful
 S P
 beh alf
ab s
 un com
prof it
5 2
ent h
 inter face
 establish ment
 to ler
 Hen ry
 G reg
am ber
c ar
 M ajor
 Th us
U s
 g ained
 fe e
le te
s he
 found ed
et ime
 found ation
j o
5 1
 E SP
ili pp
 club s
 cann abis
 j u
 air port
 Ke y
y stem
 b orrow
ol is
we et
B O
 manufact uring
 re ly
 H it
a us
 P ay
 Al abama
 gen uine
 R oyal
rat ors
Be fore
u er
 comp onent
 rid ic
ose xual
 whe el
r ative
 O ak
 journal ist
 rel ief
 S n
 sa ved
 h ole
 y ield
 head ed
 cy ber
N e
 M oh
epend ent
 g ift
b ell
 f ault
 withd raw
 indic ate
 draw ing
 un iform
um er
 R and
 V is
ar lier
 st able
 sh ips
 - >
 ban ned
 mag n
 M id
 foot age
Mean while
rou s
 do ors
l an
 recogn ized
 19 60
 cont aining
p read
 F C
 r iver
am i
 strugg ling
S ub
 sp ark
 Academ y
 wall s
 achie ved
op her
oun ced
 neigh b
an ing
 pl ate
 ed ition
 H T
port ion
m ate
 move ments
 deli ber
u ce
te en
P ost
 sh arp
 A S
 S now
ul ating
 Th ree
 epis odes
 neut ral
 Prem ier
 R et
 F und
 except ion
et ts
 produ cer
________ ________
 F red
 dest ruction
 199 8
ou red
 belief s
 4 7
 Re view
 leg end
 p ump
 Mc G
 back ed
um in
 lik ed
 h ired
ides pread
c ription
 ro les
 langu ages
 profess ion
 ent ering
os a
 V R
 interview s
 h ang
is p
 K ir
em an
 to x
 philosoph y
 Administ ration
 ar range
o en
int erest
 fl aw
Th ose
 N ob
sy lv
im ore
 st adium
 Atlant a
 J ac
 redu ction
 din ner
c a
j a
 b ath
 Rep ort
i el
u per
 Turk ish
4 00
 a ver
 f inger
 N ote
 Con ference
 tack le
 ch a
bur gh
 g onna
 Die go
 P oint
 c rop
 Cent re
 farm ers
 M anchester
 nomine e
 4 1
5 3
ach ing
 J ason
 bare ly
AT O
 struct ures
 cont ained
 sy nt
 O tt
 deli very
 conv in
% ,
 process ing
 disc rimination
 inc ent
ri ers
 F air
erv ed
R S
 D ata
t hen
 Ar m
abin et
 intellect ual
 Rad io
ams ung
 4 6
 B ry
 O K
 F ield
M e
 D id
 up set
 Per haps
 M ir
 Educ ation
sylv ania
aw ay
P resident
 challeng ing
 pro ven
 restrict ions
ri k
 fore ver
h o
http s
ol en
 elect ronic
 hit ting
 H ay
 e uro
 un ex
 review s
 F ed
 Christ ians
 4 3
 N C
 conv icted
St ar
 ill ness
 sm ooth
p age
D av
 H or
 ret ired
 indic ated
us ive
 produ cing
 Ab out
 Har ry
 rapid ly
 ro se
 h ide
f r
 corpor ations
 o cean
i y
 R us
ay ing
ow ing
 list ening
 Re uters
 U FC
 S at
 techn ique
 m o
y ard
sel s
 l oyal
 N ic
less ly
 rob ot
 cl imb
 not ion
 beg un
8 7
 ut il
 recogn ition
 re n
ou ver
eng ers
 per pet
 associ ation
 mil k
in f
 as ks
 webs ites
 desc ription
 P ack
 tick ets
 P en
ach us
 fl ash
 b ra
 suggest ing
enn y
 Jud ge
 exclus ive
 reach ing
 prep are
it i
 K ansas
Wh o
ion e
 b ail
 fr ag
 progress ive
 b urd
 ex ceed
 equ ally
 H ard
 hard ly
 w idespread
 A BC
 campaign s
 May or
 cont ribute
ud es
olog ists
 br anch
L ook
 R ose
 gr ass
 initi ative
 Mark et
 eth nic
 ex ternal
ik es
 C irc
um a
ri ent
 sens itive
 pract ical
ust ed
el f
 unc lear
 norm ally
R ef
 represent ative
p at
l s
8 9
th on
 we lf
 F ull
 redu cing
app y
 friend ly
b ec
 care fully
 Arab ia
 R ef
l ad
es ter
 L y
P M
 L uc
 rac ist
 inv ent
r ical
ou ch
P G
 C O
 Ne xt
 respect ively
sen al
rat or
 t ail
im m
 McC ain
 Bern ie
anc ouver
 overwhel ming
 view ers
 Be ach
st ract
 welf are
arr ass
 F urther
 convin ced
U N
 sm oke
um es
 coll apse
 involve ment
 L ind
 th rown
pl oad
 connect ions
he ast
 terror ists
 B attle
 strateg ic
 h ook
  00
 Lat in
 rec over
omet hing
igr ant
 O nt
 w ine
M c
ino is
 Mus ic
ro lled
 mind s
 v ital
 settle ment
 stat istics
 l ists
 v ary
 S ir
 feat uring
 ESP N
ec ut
 D ig
achus etts
 behavi our
 independ ence
w orth
 fant asy
 dev ast
ned y
c ore
ut ies
 inv ited
 compl aints
 jo ining
 score s
d em
 f iscal
 deep er
ab il
 Penn sylvania
if est
 st eal
 an ger
 dep uty
 el ig
 w ars
 Squ are
 T enn
 investig ate
 T own
 su gar
 const itutional
 II I
 schol ars
 P it
 i OS
 any body
 subject s
 A ND
 ar ray
 al ien
F A
 U lt
 G ov
 l obby
 owners hip
 frame work
 unemploy ment
 Div ision
 trans gender
b n
 improve ments
 S S
 men u
 pe ak
B ack
 sc reens
ih ad
 in ject
 l uck
ivers ary
 def ine
 t asks
 X box
 dem ocratic
 sc andal
ick ing
 j ury
ac on
 Ant on
C he
 Min istry
 c os
 E s
 compre hens
os it
 K at
 rem em
 disc overy
un ior
 reg ister
 cas ual
 citiz en
R I
 f ab
U nder
e en
 road s
 disag ree
 fail ing
 N ever
 L ittle
 J ay
 dynam ic
 serv es
 Camer on
 Bro ther
 M ah
 test im
 g athered
 St one
 In formation
S m
 s oph
od ing
 implement ed
 controvers y
 collect ive
 tr ained
ann a
 N SA
 neigh bour
 fear s
level and
 sam ples
 f iction
 pro sec
ag g
 est imate
 Commun ity
6 9
 I ce
 Med ical
 199 7
 Ph ilipp
 refer ring
 t ip
 cap tain
W ill
 199 6
 sp aces
c ific
 Walk er
 vers us
 leg s
 Sant a
' .
 tem porary
P C
 no ise
 H D
 over t
 incor por
 t one
 visit ors
 re ven
 civil ians
 w ages
 hyp ot
 s in
 rem arks
 aware ness
 O N
 Spr ing
 recomm ended
 st upid
 All en
 head ing
 hand ful
 reg ulation
ick et
 A ction
 C ore
 platform s
 acc us
 Anth ony
 aff airs
 touch down
 r ural
 attack ing
g ener
 ext end
 ult imate
 att ached
 Veg as
 discuss ions
 R en
 hor se
 B rew
m ad
 rep rodu
 gen etic
 expand ed
 attempt ing
ph ones
 Mat thew
 r aces
inc luding
ir y
 Que en
 r aw
 ign ore
 Columb ia
s erv
 P ent
 Guard ian
h our
 C ook
 i P
ition ally
 g ear
 sympt oms
 Pat rick
 suff er
 sett ings
 M ake
—— ——
all ing
 sal ary
c ase
 lic ens
m ary
G O
 tweet ed
ang el
 public ation
 br ill
 fact ory
 suspect ed
 purch ased
are t
 inter vention
 eas tern
 hol iday
ty pe
20 14
 the at
es h
Ab out
 dis pl
 rank ed
 B udd
 ne ck
 Aust in
 Conserv ative
 M useum
ect ive
 R oy
" )
 c ro
 enorm ous
S en
## ##
intend o
 c ogn
 log ic
ult ural
ict ions
 improve ment
 AP I
 view ed
 ing red
 entertain ment
A ss
 legit imate
 Prof essor
omm od
 pres um
 Al bert
 Mass achusetts
 B all
 201 9
 w ww
New s
 act ors
 substant ial
 human ity
 invol ves
 res ource
ar ms
 brother s
 liqu id
 r ational
 seem ingly
 s orry
 lay er
 lo ans
 ro ok
 investig ating
 abs ence
 prov iders
 tom orrow
 fall en
 b ureau
 ground s
 co aches
 st ake
 res ign
 out s
re c
 advoc ates
 � ��
R C
 investig ators
 conspir acy
W here
 medic ine
 dram atic
 f ulf
 mon itor
 Ch air
ES T
re pre
 over s
 ch apter
 Se ason
 c oc
ov al
G E
l ah
 H o
. -
 activ ist
ple te
p ed
 bo at
 Che ck
ak a
 Cont rol
 j ur
 susp ended
 p apers
Sc ript
 Gree ce
 opin ions
 S uch
 R oss
 miss ile
 Gold en
 cele b
 Rev olution
20 16
 stay ed
 co vers
 R a
 He ad
iver pool
 d iversity
oty pe
 b ars
P art
 g am
R uss
 emb arrass
x it
 offic es
 A cc
re ts
our se
cl aim
 P ot
h ot
 Iran ian
am med
 dis rupt
co ver
 W W
 pre ced
 po ly
 fore st
we red
 care ful
m at
repre ne
v ard
 am id
 Hist ory
7 9
 H ospital
ist ing
 A le
 aut hent
qu est
 Ill inois
 C BS
 S ony
u ction
 h am
ge on
Rel ated
d it
 A p
7 4
7 2
r ine
 transport ation
 V ancouver
 G aza
 hand ed
 prot ocol
 consist ently
 mount ain
 5 2
 read s
 St at
 pre f
 clot hes
 att itude
i ability
 Sh are
 Ken nedy
 p orn
 princ ip
 F reedom
 dep ends
 min ing
 pet ition
 not ing
 war rant
d es
 con ce
 col ors
 low est
 And erson
 T ri
 address ed
 F amily
b i
un es
 ent r
S te
 St adium
x x
 throw ing
 j e
 f ruit
 virt ually
! )
 st one
 f oss
 Me an
 guarant ee
 refere nd
B oth
? ?
 speak s
 Balt imore
in ch
 ste el
 cl osing
 read er
d ri
F F
 bu ff
 person ality
 appreci ate
 C re
 Iraq i
 sur f
 En vironment
 n erv
ien ces
m aker
 k m
ke ep
 hand ling
 prof its
ord on
 g rav
 mar ks
l ow
 tri es
 Bro ad
 contribut ions
 Eng ine
rop ri
z ed
 spirit ual
 convers ations
 fant astic
 T ro
 l ands
 con sole
il a
 hor ror
pp ers
" .[
ic ity
 g ains
 cover ing
 te a
iv als
 Har ris
H er
 h int
 ast ron
av al
 should er
sc ale
 w rest
 gu est
 E xt
 acc ommod
ut ed
u its
 dep ression
 C A
  _
 Lew is
 l ucky
 B ang
 encour aged
fl ix
am ac
 jud ges
 inc idents
 C leveland
 d rew
 subsequ ent
ir a
 sp oken
 How ard
ann els
 B ad
 bro wn
 b acter
P lease
ix ed
 r het
 r anks
 Get ty
 phot ograp
 infl ation
 in ner
 Int elligence
 P o
it ting
 B a
 m aps
ab eth
 Pat ri
port ed
ij ing
pl ate
 div ided
 199 5
 N ATO
**** ****
 par alle
 dr ama
 Mex ican
 dist ributed
 g al
 innov ation
 sw ing
un icip
 c ust
 Un fortunately
 prem ium
 vot er
 per mit
 re vel
 K ong
 tre m
 d ance
 cl im
pl ed
 L as
 eff iciency
 prom ises
 Ind eed
N ote
ed ing
 C H
 Wh ich
 ball ot
 5 1
p ie
 Ad v
 temper atures
 S amsung
 port ray
 spokes person
 l ocked
 l ying
 impro ving
 th rew
 j oy
 d ump
Ar t
 mus ical
P P
 mist akes
d ated
 sh out
 St art
 hom eless
con f
 replace ment
er ies
 com edy
 che cks
 With out
 M oon
 instru ment
oun ce
 Con nect
 acknowled ged
 bar rel
 respons es
 protect ing
back s
 D et
� �
 sil ver
 cop ies
he im
 l es
 A C
 d ad
 break s
 Pl us
 B uff
 common ly
 le ts
 leg acy
it age
 prote in
 mat hem
 jo ke
amac are
er ted
h op
ar re
 pass engers
20 15
 y ellow
 Mar vel
 n aturally
Y our
 S cient
 nom ination
S ource
 meas ured
ap ing
od ed
al ia
 U se
 abandon ed
 m ad
 Pr ince
 stud ied
8 00
 Foot ball
hel sea
 d iverse
arg o
 acqu ired
iet ies
 L yn
C ons
est y
 so il
 M arsh
 demonst rated
 bl ast
 re ar
 fund ed
 head quarters
hes is
y o
 st olen
 sc an
 count s
 t ape
 partners hip
 mid field
 N OT
 ( “
 upgr ade
 C ost
 Atlant ic
y er
 m arch
 ord inary
 A ud
 N ev
 r om
aw are
 liter ature
 pl ain
 st ages
 � �
 ass ert
 199 4
h igh
 A I
 help ful
 arri ve
 ex it
 sc ope
 fall s
6 3
d og
 ign ored
B M
 tw enty
et ers
 M aster
 cl ock
 com pe
in ction
 vir us
 T rib
 referend um
 in equ
 un ions
 Do es
ass ador
 G un
 conserv atives
 r if
 gr id
 sy mp
 f estival
 f ro
 sho pping
 wat ers
 P op
 cap abilities
 B ron
 a x
lah oma
 us age
 H ind
i ate
z ing
 Em pire
aed a
 Ab b
ing ton
 Indian a
ile y
 trans actions
er g
 hop ed
 dist ract
 A st
 gu itar
V E
 E ag
 st y
 r amp
 assess ment
ct ic
 univers ities
 D ave
 m oon
 monit oring
orm al
ack et
br idge
 represent ing
F acebook
 rat io
 De ath
en cing
ugh t
6 2
 Pro v
 convention al
com es
US T
or ge
 tr ave
 S et
 track ing
d oor
nt il
 S ometimes
6 1
on ly
sh ire
 h ung
 S us
 rel iable
 t ie
 propos als
 ske pt
 He ll
 repl ied
 R os
f und
u h
 critic ized
 appear ances
r imin
 H a
ecut ive
el a
 rac ism
 ins isted
or gan
 introdu ction
 20 20
 appoint ed
d ney
 B ureau
ol ph
ag ic
 P ass
c ut
K e
 L ine
 beaut y
 conc rete
 rece iver
 supp lies
 perform ing
m ade
j i
 b ub
 ex ch
r ite
 vis iting
 Techn ology
 Den ver
oc ument
E E
om es
 C apt
the less
R L
 let ting
AN D
 def icit
 class ified
 Gal axy
 aut o
H T
 re nder
 abs or
 Or ig
 sw im
 accompl ish
 program me
 pres idency
c rib
 block ed
 Swed en
arch y
 d ust
 Ut ah
 dro ve
 land scape
 can ce
 Port land
pl us
 dismiss ed
 L A
 hy per
 ab road
 bon us
 J am
 T our
h ar
 sequ ence
 predict ed
 sen ator
� �
 A ge
 dom ain
 C ode
 e c
 m useum
 war n
 Associ ated
ac co
 pers ons
N S
 d ub
ian o
ag a
 request ed
 trig ger
 Ont ario
 h ockey
 Cor por
 art ific
 d ates
 testim ony
 cent ers
� �
 rock et
ir ts
 v es
 trans it
 congress ional
 entit led
ult ane
 spokes woman
 Fr ont
 N intendo
 Alex ander
 resc ue
 Co oper
m ony
 ass ign
 B on
 equ ality
 p atch
 ur ged
 b read
 Olymp ic
 document ary
 veter ans
 cl ar
f ol
9 3
a is
k ing
 � �
pt on
 rec all
 pop ulations
9 4
 L ow
 breat h
St ill
9 2
room s
 when ever
 viol ation
 tact ics
 w ider
7 1
ound ing
 K ar
 target ing
Y et
th rough
 purs ue
 s alt
" >
A re
iz abeth
 f iring
d on
 M ill
 ac id
 m ole
in ating
 restaur ants
 comp are
7 3
f are
C omp
or ous
enn is
 w edd
 employ ed
 Rober ts
 cont rad
 B ible
 polit ically
 phr ase
 satell ite
 C ro
 surv ival
 retire ment
 bank ing
 F orm
 brill iant
is ons
 G irl
at ar
 ch annels
 ser vers
 Be ijing
 soc cer
tr ans
a ver
 M ach
the y
 introdu ce
 Just in
 exper iments
ene z
 prison ers
ra pped
 c ig
 W H
af e
j ud
 f ighter
6 00
 scient ist
O K
 Y OU
usal em
 L ist
 sub mit
 appro ached
 A ward
 month ly
 L iverpool
 design s
 represent atives
 tit led
ord inary
 qu ote
 popular ity
ol ves
 ab ilities
oen ix
 c ul
 P D
 members hip
 investig ations
 focus ing
m ans
 h osp
 b ab
 Br idge
Th ough
 Mary land
 sa ving
p a
 r ush
 Govern or
 sh adow
ou ri
b ow
 H ur
 B ase
 object ive
ber ry
 T ed
em ed
er ts
eder ation
 m it
 pre par
 t ips
 W as
 pip eline
Dav id
 child hood
ik a
 rat ings
 th orough
 ent reprene
ent er
 V ill
 D utch
w as
bre ak
 act ively
 Har vard
 p ig
 S om
 demand ing
 lo ose
ast y
 B ra
 unex pected
C O
 sm oking
 sm ell
 den y
 univers al
 fore cast
 arg ues
 phenomen on
 overse as
m ers
old s
 sett led
w alk
 Be ck
 gener ations
 week ly
 ch icken
 prep aring
 9 5
 smart phone
 produ cers
 but t
 P A
 legisl ative
 anx iety
 dist urb
 H ave
 innoc ent
min ute
 C lick
 mort g
 celebr ate
D em
 U r
ik i
 prov ision
 D O
 ke ys
d ed
 sh ame
 arg uing
 Des ign
he ld
 question ed
 for cing
 C ow
 H op
omp son
ag h
� �
 broad er
 encoun ter
S L
 fl ags
 f ool
 m ac
 5 3
 dead ly
 f ur
8 4
 re verse
o z
 we igh
 Ed ward
 Am ong
 t ens
  ~
 m os
 wealth y
 Ob amacare
 un pre
 maintain ed
 sure ly
 sh ield
 Pro p
ocol ate
ore t
 second ary
is a
av ed
S im
 sav ings
ir lf
 ro of
 st ability
 civil ian
 t ab
el son
� �
 Car ter
 reve als
m ind
 min i
 al arm
 ann iversary
 s orts
o is
 A k
vern ment
E l
 ton ight
 rele ases
 H on
 room s
irlf riend
is k
 G ulf
 out rage
 prosecut ors
 Le ft
 dis order
in als
 ex ha
or ious
 sh r
 rel ax
 wind ows
 threat ening
 different ly
 harass ment
 qu oted
 health care
 sub mitted
 ar bit
 l unch
st ep
it ter
 R un
 reform s
 tort ure
re ction
 f ate
 st ored
 o kay
 Bel g
 propag anda
 sp ots
 instruct ions
 Viet nam
 se vent
 round s
 odd s
 199 2
a a
 a er
ht ml
ten ance
 er rors
est ed
 Ok lahoma
 hy dro
ic ism
G A
 de lic
ail ed
 Liber al
 sil ence
 Gra ham
act s
 War ren
 grad uate
 S ab
 afford able
 circ le
se ct
 Bl oom
 cooper ation
 p icks
 se ar
it ary
 Sar ah
 F all
ors hip
 Ex pl
 strik ing
 p uzz
 pers u
 stre aming
 comprehens ive
r ace
 important ly
 c ow
 poss ess
W atch
 f ing
 exec ution
 Rub y
l ined
row s
 int im
 strugg led
 P erson
 ass ass
 Sil ver
 Le ader
ut en
ah u
 g ent
T y
 Pr ice
Re uters
ish op
 des erve
 Jer usalem
 land ing
 cal m
 al ter
 cere mony
 assum ed
 demonst rate
 difficult y
8 3
 ag es
 pr on
 d ying
 h al
 dist ingu
as ury
 ste pped
et he
 b orders
 che st
 W olf
 L t
 adv enture
 point ing
ov a
 w aves
 kil omet
es see
ier ce
 Net flix
ater n
 aut onom
e als
 precise ly
 architect ure
 great ly
 De b
 prom ising
 cons ent
b ury
 consider ation
 T en
 dri ves
 dial ogue
 M ain
 trem end
 B ud
as ant
 newslet ter
 rook ie
 award ed
 Mean while
a fter
 repe at
 St ory
 cont ribution
 Te le
 b urning
ie v
part y
 sim ultane
 Scott ish
 V ice
 don ations
 Ind ust
ak h
 inter f
it ol
 Mag ic
 vo ices
 analy st
 Bru ce
 Te ch
cept ions
 g if
 frequ ency
 Comm on
 proced ure
 want ing
 P res
 execut ives
 playoff s
le e
o ice
 stay ing
ap olis
 b irds
 bi as
V D
 H ong
 A z
iz er
 inc hes
 tr illion
om y
hold ers
 highlight s
 sem i
 remark able
 where as
E X
rib utes
 Palestin ians
 kn ee
op en
 Jon athan
 an s
ra ig
 impl ications
scrib e
 form ation
 super ior
 strateg ies
it ual
 Ber lin
St ep
 L ink
st al
d iv
 Sy dney
 M ORE
 categ ories
 Ar k
 f et
 follow ers
 cre am
St ory
port ation
F O
 contact ed
M s
 jud gment
ann on
 sm ile
 inf o
 emer ging
ig ious
r if
j s
ond er
om ed
y es
b ered
v ision
 E ff
vertise ments
iff s
h att
 access ible
 cr imin
T P
 phys ically
 ass igned
 5 4
 And re
 gu idelines
 defe ated
 w ounded
 tri als
 st em
 man aging
 spe ll
 min istry
 gr ade
 co inc
 r iding
 indic ates
 cent uries
Ch rist
c est
 Aff airs
 op ens
ak i
 ph arm
ll a
- >
 meaning ful
 t iss
ere nt
 Mr s
 e ase
ch ild
 marg in
 St ore
 clot hing
 � ��
 T es
 S ix
 Cap ital
 particip ation
ced ented
M us
 re vers
ar ia
 po ison
 Bre xit
 1 20
 Y emen
 l apt
 compet ing
 mem ories
 C S
 the ories
 rec ipe
 g ross
um ble
a uthor
h ard
9 1
 pass age
s l
 ag ed
 C redit
 b in
 dr one
 bl ank
 disp ute
 dam aged
 199 3
v an
 Ham ilton
b ase
 subst ance
 host ed
T ER
Go ogle
 C helsea
 L am
 promot ing
 fac ilit
 open ly
 Inst agram
 19 50
 V ik
V iew
 Child ren
 Cr ime
 clin ical
O ut
 n ic
ere my
 H old
b its
 invest ments
 cons ensus
e ven
ig ate
 Le on
s es
 F al
 educ ational
it o
con st
 dis h
 man ifest
 cust ody
we ek
8 2
 elig ible
 Haw ai
 leg ally
 miss ions
 end orse
 g ate
er ia
 mem o
 G T
 t ables
 P ict
 n in
 stud ying
H z
  ?
 char ity
ar ation
ad i
 address es
 ins pect
 disc ount
ri x
le ft
 batt les
AL L
 D er
 2 50
 As sembly
 athlet es
P re
 Tr ade
 foss il
 enthus i
 Man agement
i ac
 suspect s
 t ired
 he lic
A ct
 counter part
 n a
ac hel
 d ating
 E th
 spect rum
 M etro
ater al
 St ation
 B al
 present ation
 l ux
ge red
art s
 bot tle
 t ap
ri ors
 v ig
 fund ra
 enh ance
ass y
 Se an
 therap y
 W ales
 Ex per
 per ceived
mark et
 T ok
 domin ant
D ef
m ath
 back ing
 F estival
 under lying
 def ending
 Th rough
 rac ing
 discuss ing
 burd en
 expand ing
 mus cle
 stop s
u z
 be ings
 Mar x
 E qu
 trans action
 U ber
 9 9
C al
 rec ruit
it udes
ac her
 G ary
 m ood
 pick ing
8 1
land o
yl um
play er
 man agers
or able
 gather ing
 hop efully
ang le
 S on
al ysis
 V ideo
se ction
 cr us
 Lib ya
 imp ression
 h ip
ol ar
� �
 scr ut
 ro y
 T ai
igen ous
 inst itution
 Bat man
} }
 st ere
 proced ures
� �
 p ocket
 creat ures
 B oe
 comp at
 arri val
pt ions
s a
w atch
 e ager
 poll ution
it ure
 kit chen
 food s
oc ial
 rec re
 surv iv
ro ph
 organ ic
 Pent agon
 Mor gan
 sh ipping
 capital ism
 ins ult
 tim ing
s ub
od ox
 require ment
 unf air
ad ers
 5 6
 m ice
 Ass ad
R em
 Rep resent
 M ess
 ML S
b ing
ative ly
 El izabeth
 O p
 dise ases
M od
 indust ries
 Oak land
d y
 b owl
ol n
 Mur ray
 C reat
 s ed
 helic op
 div or
ag ger
 be ach
 punish ment
ab et
 she ll
** *
 fl ed
 hosp itals
miss ions
 t ons
A F
 K ick
 se ed
og y
 Come y
opy right
 stat ist
 engine ers
 ob sc
 h ire
S C
 mod ule
A Y
am ous
 coach ing
oc a
 ans wered
r ac
R eg
T R
 graph ics
 regul atory
 so vere
 st ance
alt ies
 b ow
 Ke ep
C lick
 expl aining
 rhet oric
 be ating
 F riend
 t ut
 Em ail
ri or
 Y eah
em ic
 acknow ledge
 Mic hel
 princip al
 M it
